{"vocab": ["</w>", "!", "0", "1", "2", "3", "4", "5", "6", "7", "8", "9", "?", "a", "b", "c", "d", "e", "f", "g", "h", "i", "j", "k", "l", "m", "n", "o", "p", "q", "r", "s", "t", "u", "v", "w", "x", "y", "z", "\u00e0", "\u00e1", "\u00e4", "\u00e6", "\u00e8", "\u00e9", "\u00ea", "\u00ed", "\u00ee", "\u00ef", "\u00f0", "\u00f1", "\u00f3", "\u00f4", "\u00f6", "\u00f9", "\u00fa", "\u00fc", "on", "th", "ou", "er", "an", "you", "ar", "st", "in", "is", "the", "at", "mon", "ard", "en", "ec", "ro", "al", "ster", "card", "monster", "or", "your", "this", "to", "and", "can", "ac", "ed", "it", "ur", "el", "le", "of", "ing", "sp", "se", "um", "ge", "ef", "ect", "ra", "ent", "es", "sum", "summon", "if", "tur", "rom", "fect", "turn", "from", "effect", "ce", "re", "ial", "pp", "wh", "ly", "no", "ont", "de", "att", "as", "monsters", "ti", "ve", "am", "spec", "special", "cont", "rol", "that", "per", "be", "ri", "opp", "control", "onent", "opponent", "get", "fi", "hand", "ion", "ch", "end", "by", "dec", "tar", "ha", "target", "up", "qu", "once", "un", "ay", "bo", "do", "dest", "only", "roy", "ut", "ith", "me", "destroy", "ex", "deck", "ad", "eld", "gy", "lo", "li", "field", "not", "ace", "ack", "for", "po", "gh", "ach", "with", "vat", "ell", "00", "us", "acti", "summoned", "activat", "ain", "ir", "ck", "but", "batt", "face", "when", "ish", "qui", "its", "use", "so", "battle", "gra", "faceup", "atk", "dur", "during", "cannot", "vel", "ke", "tra", "he", "grave", "yard", "graveyard", "attack", "all", "pl", "cards", "ther", "ul", "level", "age", "ol", "each", "then", "ne", "opponents", "pha", "om", "spon", "phase", "spell", "il", "dam", "sponge", "bob", "damage", "ban", "pt", "ater", "one", "spongebob", "sh", "im", "ght", "banish", "def", "destroyed", "dra", "go", "ow", "pe", "are", "nor", "ter", "effects", "ma", "activate", "mal", "pos", "exce", "ver", "except", "ust", "gain", "ition", "normal", "whi", "ts", "add", "ic", "tri", "id", "oun", "other", "position", "ta", "ame", "mater", "material", "ok", "ty", "out", "controls", "while", "low", "his", "trap", "ld", "tribut", "send", "ig", "my", "xy", "ate", "ber", "also", "equi", "fli", "ste", "ink", "sent", "any", "xyz", "play", "her", "was", "have", "gon", "ore", "we", "ant", "si", "ble", "ast", "mo", "sy", "ense", "hi", "now", "what", "ation", "pat", "fus", "wor", "type", "til", "ward", "ves", "ers", "fusion", "until", "defense", "ill", "co", "ss", "ry", "neg", "extra", "rick", "gains", "ould", "qual", "equal", "squi", "tribute", "way", "pend", "bec", "more", "ark", "squid", "reat", "dragon", "la", "patrick", "their", "res", "squidward", "com", "into", "syn", "pendul", "pendulum", "dis", "ose", "main", "synch", "od", "ine", "sc", "af", "ual", "ear", "zone", "synchro", "ni", "set", "op", "draw", "rit", "ct", "ound", "rab", "own", "they", "pped", "ind", "infli", "ho", "ff", "uner", "them", "may", "krab", "like", "num", "ere", "000", "must", "ab", "ev", "beast", "number", "ca", "pi", "dark", "fer", "app", "than", "negate", "der", "lea", "su", "link", "step", "lower", "chan", "uff", "em", "quick", "500", "activated", "return", "nt", "discard", "equip", "ither", "inal", "poin", "war", "back", "alk", "thing", "time", "inflict", "sel", "equipped", "spelltrap", "ps", "ritual", "star", "look", "bl", "just", "take", "place", "mr", "him", "ph", "rest", "has", "would", "ey", "ie", "orig", "oh", "points", "bu", "some", "gi", "name", "original", "after", "used", "coun", "lar", "off", "ess", "sa", "ever", "ang", "ak", "banished", "inc", "wn", "light", "attacks", "same", "night", "dif", "ous", "man", "well", "na", "old", "high", "differ", "change", "et", "kes", "either", "side", "there", "rior", "con", "counter", "know", "warrior", "ary", "gu", "ext", "ken", "1000", "red", "right", "how", "stand", "ving", "krabs", "over", "make", "fac", "got", "different", "ice", "lif", "top", "dont", "who", "tw", "fish", "read", "here", "ran", "omes", "water", "run", "ally", "leaves", "ru", "using", "becomes", "lp", "row", "good", "dir", "sand", "these", "ga", "tuner", "less", "det", "shuff", "ah", "uh", "king", "ong", "ough", "those", "detach", "air", "walk", "ated", "higher", "bin", "lose", "fire", "ure", "ian", "head", "stead", "sk", "tom", "token", "instead", "ies", "wa", "cur", "combin", "ll", "cal", "direct", "mach", "les", "act", "ved", "select", "players", "player", "activation", "ep", "treat", "down", "under", "cy", "edown", "cul", "both", "ream", "ins", "facedown", "fol", "life", "next", "were", "shuffle", "day", "pro", "about", "mag", "ely", "follow", "lau", "ite", "another", "let", "materials", "du", "reve", "reveal", "tal", "did", "again", "hero", "arm", "sandy", "os", "fir", "par", "ree", "machine", "fo", "see", "nont", "every", "laugh", "wing", "come", "ity", "knight", "declar", "nontuner", "ames", "our", "gr", "where", "remo", "dy", "col", "first", "ting", "resol", "treated", "fe", "ome", "following", "even", "rent", "ton", "eyes", "takes", "current", "pay", "ia", "hal", "elly", "put", "est", "show", "think", "ase", "bot", "ye", "lu", "world", "gary", "combination", "will", "hey", "anc", "door", "mi", "ord", "gl", "rock", "ence", "want", "whose", "calcul", "standby", "calculation", "negated", "great", "cho", "300", "bas", "directly", "jelly", "sha", "game", "sec", "does", "ive", "too", "around", "two", "hel", "earth", "av", "itch", "tion", "ot", "ens", "bar", "wind", "battles", "cyber", "magic", "ways", "ser", "pan", "flip", "youre", "ment", "ribut", "ning", "ring", "form", "ai", "attribut", "cut", "iat", "yes", "ks", "fl", "ag", "targets", "andor", "ys", "ears", "vol", "thats", "mer", "which", "ull", "book", "walks", "ip", "tle", "destroys", "pre", "say", "pok", "many", "mar", "black", "still", "ron", "targeted", "lit", "become", "names", "fiend", "atkdef", "it!", "pok\u00e9", "ama", "plant", "fri", "yeah", "des", "atch", "love", "hes", "ouse", "ise", "rust", "okay", "min", "away", "ding", "runs", "cry", "fun", "going", "jo", "resolves", "really", "ement", "cant", "bur", "jellyfish", "declares", "spir", "tributing", "start", "car", "ause", "activates", "200", "patt", "!!", "she", "word", "pok\u00e9mon", "cl", "eat", "stop", "bet", "bottom", "rough", "ide", "led", "dd", "house", "hold", "based", "din", "ist", "zon", "because", "ja", "list", "ue", "tim", "pa", "summonedset", "hear", "cks", "dr", "tell", "through", "ass", "gen", "sw", "spongebobs", "med", "rease", "ready", "ious", "work", "land", "laughs", "rel", "apply", "ign", "mu", "why", "long", "fly", "attach", "roll", "te", "mean", "aby", "currently", "body", "friend", "100", "ond", "bre", "bi", "very", "could", "fall", "been", "iz", "levels", "che", "mor", "pr", "ful", "bble", "new", "never", "leg", "super", "need", "sor", "element", "little", "drag", "had", "cra", "ki", "rank", "remove", "tic", "loses", "squ", "attribute", "total", "800", "tributed", "plan", "zom", "possi", "invol", "ult", "able", "rusty", "pal", "boy", "pri", "increase", "lord", "win", "bie", "krusty", "self", "looks", "ror", "pres", "talk", "sea", "?!", "ko", "fair", "bubble", "cle", "counters", "ze", "contin", "zombie", "second", "scream", "sm", "decl", "ance", "declare", "ler", "best", "caster", "fur", "affect", "sho", "elemental", "clo", "gre", "insect", "spellcaster", "ling", "pow", "stor", "jum", "try", "bs", "big", "cyberse", "gonna", "sal", "aa", "spongebob!", "val", "affected", "give", "attacking", "s!", "peop", "half", "non", "puts", "wait", "should", "rand", "evol", "ient", "always", "winged", "ight", "nin", "ash", "sam", "unaffected", "happ", "mus", "ene", "gets", "magician", "people", "dri", "attacked", "sou", "ses", "much", "2000", "continu", "bor", "call", "fairy", "ref", "dou", "kid", "most", "arch", "creat", "sound", "aw", "ick", "vi", "home", "flo", "bel", "cts", "tokens", "being", "sure", "son", "owners", "without", "samur", "mas", "turns", "bef", "ground", "samurai", "something", "fa", "inflicts", "di", "three", "10", "patty", "ating", "ged", "meow", "ype", "evil", "exact", "before", "dream", "gho", "box", "immed", "bus", "six", "immediat", "immediately", "hands", "hor", "zones", "inside", "sing", "exactly", "ancient", "possible", "power", "help", "neither", "cryst", "ny", "tor", "mm", "rep", "flying", "gal", "involving", "tty", "abyss", "spe", "cing", "dow", "ought", "saur", "ator", "oo", "inclu", "summons", "blue", "said", "glad", "iny", "ten", "goes", "sur", "sun", "ple", "tru", "ger", "times", "fr", "ical", "ship", "vis", "ba", "ture", "starts", "ird", "lets", "ents", "rec", "zz", "sky", "soul", "pants", "sess", "sem", "har", "ka", "everyone", "shows", "sle", "ghost", "dog", "cor", "ball", "sign", "ju", "400", "appears", "order", "ner", "lad", "blow", "sorry", "pen", "comes", "exca", "excavat", "sends", "ans", "stri", "dro", "possess", "huh", "whats", "heav", "gold", "doing", "eye", "thunder", "break", "reme", "no!", "ven", "arms", "real", "perfor", "uck", "ft", "chain", "ech", "ort", "opens", "feel", "sim", "ions", "makes", "sword", "rows", "dol", "pho", "choose", "screams", "plank", "osaur", "spirit", "pier", "krabby", "zing", "including", "noble", "random", "ret", "gener", "bro", "money", "lease", "performa", "performapal", "resem", "stra", "oud", "int", "ket", "crystal", "tail", "maid", "better", "please", "plankton", "kind", "pull", "ontype", "phan", "duel", "mir", "psy", "wan", "iator", "bad", "1500", "piercing", "mis", "ates", "cook", "watch", "dragontype", "abo", "art", "bit", "dinosaur", "fin", "vo", "ya", "beastwarrior", "bal", "anything", "last", "gladiator", "room", "salam", "unk", "uhh", "squidward!", "appear", "ild", "net", "skill", "nice", "white", "ily", "result", "bra", "falls", "irl", "flipped", "cri", "refer", "move", "da", "vent", "piec", "fro", "repti", "que", "bed", "addition", "paper", "hind", "made", "law", "lam", "removed", "ele", "imp", "continuous", "jumps", "kids", "hy", "ese", "boo", "part", "ub", "double", "exc", "nothing", "puff", "phantom", "mrs", "mou", "sol", "reas", "beg", "changed", "cool", "dut", "ually", "cro", "nat", "umn", "jin", "banishing", "left", "scene", "uses", "hard", "rong", "fam", "pur", "later", "found", "gasp", "writ", "joy", "declared", "front", "find", "dition", "column", "ically", "behind", "key", "br", "wear", "wish", "tain", "mouth", "summoning", "salamang", "salamangreat", "squidwards", "above", "ug", "ters", "0def", "ress", "mind", "cer", "hun", "giant", "kin", "mirror", "wow", "possession", "switch", "sleep", "acle", "guy", "scar", "ula", "open", "tran", "blackwing", "heavy", "hat", "fight", "island", "inter", "window", "dutch", "selected", "ider", "elect", "char", "keep", "crow", "thought", "ale", "unless", "zo", "holds", "sending", "cr", "shi", "stops", "boat", "dutchman", "guess", "seen", "iron", "scre", "destiny", "typ", "ms", "cust", "ignor", "food", "chic", "anger", "thanks", "vers", "machinetype", "me!", "pick", "die", "didnt", "gear", "grabs", "phases", "resemble", "tun", "kar", "combined", "ush", "spells", "aqu", "witch", "sir", "heart", "pretty", "gasps", "ution", "arl", "yr", "cuts", "huh?", "live", "incess", "sil", "lady", "true", "condition", "pu", "tries", "uce", "bun", "enough", "creature", "girl", "fav", "ted", "psychic", "swe", "mber", "lot", "600", "ier", "infer", "roid", "beasttype", "uri", "inspir", "pred", "ire", "nose", "wall", "sna", "bow", "sees", "1atk", "pulls", "ats", "oc", "known", "reptile", "force", "barn", "crowd", "attached", "gala", "speed", "ee", "mel", "rai", "remain", "galaxy", "shar", "theres", "maybe", "eck", "san", "fan", "screen", "toon", "such", "seem", "pic", "ouch", "friends", "doll", "betwe", "between", "conditions", "del", "bird", "sli", "pearl", "ap", "piece", "tron", "ignoring", "wise", "table", "sar", "guard", "ath", "eas", "poly", "secret", "osen", "!!!!", "spect", "master", "vie", "ather", "music", "ptor", "laughing", "patricks", "bea", "himself", "dum", "free", "hello", "favor", "japan", "van", "sounds", "ninja", "grand", "phone", "ived", "ides", "alter", "least", "outs", "resolve", "warriortype", "listen", "rap", "ric", "bri", "blo", "danger", "ness", "gives", "ization", "cha", "lights", "planttype", "odde", "oddeyes", "bell", "appro", "story", "ures", "bud", "coming", "metal", "twice", "respon", "tend", "tr", "flower", "bring", "pain", "amazon", "cent", "bly", "shell", "actor", "ker", "catch", "fine", "you!", "anim", "derived", "things", "bla", "sub", "pie", "duct", "bikin", "bikini", "though", "ancer", "plac", "exp", "max", "trans", "summonset", "polymer", "amazoness", "spongebob?", "line", "ction", "lim", "mat", "voice", "polymerization", "gg", "met", "kee", "took", "trick", "fing", "bing", "revealed", "enjoy", "toge", "otherwise", "wo", "japanese", "barnacle", "gar", "playing", "thank", "getting", "magi", "stuff", "dic", "color", "beaut", "supp", "stay", "spellcastertype", "battled", "patrick!", "evolution", "gig", "having", "atter", "whe", "mek", "done", "rist", "draws", "wrong", "raidra", "raidraptor", "throws", "what?", "don", "sin", "ident", "won", "sit", "outside", "photon", "today", "superheavy", "lay", "ato", "ute", "person", "ics", "looking", "dry", "board", "excavate", "picks", "y!", "gaga", "patties", "ls", "amp", "close", "favorite", "leave", "iru", "elf", "wards", "sed", "3000", "drink", "conduct", "remember", "pop", "worm", "small", "mul", "ones", "halved", "lin", "hum", "idea", "enem", "enemies", "irt", "moves", "ing!", "sold", "controller", "discarded", "ilar", "specif", "together", "prot", "hair", "ided", "str", "ashi", "making", "hire", "unity", "already", "ium", "tear", "sn", "den", "electric", "loon", "clean", "lun", "uto", "drac", "ina", "aki", "happen", "cket", "sym", "cover", "hu", "ii", "eng", "green", "isnt", "band", "kis", "straps", "blows", "animal", "grow", "deep", "ped", "myth", "tree", "pass", "protect", "mom", "train", "entire", "multi", "chi", "balloon", "spring", "far", "mine", "difference", "notic", "talking", "spellstraps", "text", "wait!", "specifically", "acc", "final", "gue", "arn", "els", "running", "era", "burning", "gri", "baby", "floor", "finish", "sister", "gotta", "archfiend", "lant", "everything", "krabs!", "aaaa", "cre", "due", "trying", "returned", "natur", "mermaid", "custom", "700", "christ", "pent", "ces", "vic", "const", "sty", "psychictype", "hang", "roz", "appli", "buddy", "marincess", "sion", "near", "ench", "magical", "nek", "pink", "whole", "blueeyes", "doesnt", "pun", "games", "abil", "sive", "geist", "response", "listed", "terror", "traps", "neo", "desp", "stic", "beautif", "mech", "reference", "choice", "edge", "tied", "clar", "ray", "flies", "gou", "understand", "redeyes", "shad", "shaddoll", "ghostrick", "similar", "reg", "hook", "hur", "ison", "depend", "hot", "years", "wonder", "altergeist", "gouki", "spot", "offi", "class", "moon", "rier", "view", "scale", "formation", "heads", "ieve", "antas", "yet", "chool", "wel", "reduce", "hope", "warriors", "nekroz", "wanna", "square", "beautiful", "kai", "lect", "pet", "fla", "it?", "sup", "pers", "soldier", "wont", "kno", "job", "scrap", "morning", "excavated", "koaki", "meiru", "dragunity", "nam", "ops", "por", "large", "ging", "cap", "taken", "present", "comp", "living", "gust", "mother", "ek", "fist", "school", "ushes", "youve", "pops", "ax", "family", "jump", "fu", "ali", "almost", "onto", "heard", "serpent", "perfect", "else", "amazing", "lists", "hip", "kitch", "notices", "design", "ob", "itself", "warm", "ley", "action", "cloud", "acy", "might", "crash", "town", "men", "few", "aly", "awes", "here!", "ches", "cat", "gem", "fallen", "eating", "tent", "remains", "foot", "haha", "added", "morph", "toss", "halve", "awesome", "dinom", "guys", "happy", "cross", "claw", "ask", "advent", "returns", "holding", "resc", "clear", "phon", "attributes", "vend", "christmas", "kitchen", "lol", "fix", "since", "burn", "hole", "someone", "gone", "coin", "patroll", "hmm", "ua", "wyr", "glass", "harpie", "clarine", "actually", "legs", "tre", "wild", "zy", "ix", "care", "ellow", "knights", "believe", "squir", "skull", "ah!", "fiendtype", "plunder", "bujin", "arknight", "working", "trickstar", "spat", "pizz", "resembles", "onom", "shown", "cream", "kill", "acks", "full", "py", "bab", "cess", "prom", "jar", "cil", "wyrm", "chaos", "bound", "says", "clarinet", "shape", "absol", "fluff", "allow", "rain", "mong", "foes", "core", "cub", "four", "ultim", "pupp", "brother", "echa", "continues", "barrier", "walking", "chron", "funny", "yourself", "fry", "that?", "potty", "spo", "huge", "lead", "rible", "rose", "mecha", "mini", "forget", "weather", "rescue", "mail", "sixs", "sixsided", "supreme", "pia", "welcome", "worn", "peri", "seems", "among", "check", "rolls", "touch", "told", "changes", "aking", "ief", "fright", "craf", "sarc", "yosen", "utopia", "iac", "pencil", "ery", "ible", "mist", "wearing", "treas", "ises", "god", "ught", "hit", "mentions", "clock", "sl", "kuri", "gim", "tears", "crying", "appropri", "appropriate", "targeting", "youll", "hh", "gary!", "stone", "possibly", "dist", "fre", "kan", "round", "rok", "ines", "ability", "gan", "pire", "means", "wanted", "union", "buil", "ations", "fortun", "spellbook", "prank", "ular", "ings", "anch", "ject", "quest", "fast", "aur", "vely", "orp", "shoes", "vor", "easy", "spac", "gemknight", "legacy", "vendread", "yeah!", "alright", "ons", "apple", "gree", "inspired", "ries", "gro", "along", "lost", "legend", "ited", "ount", "mask", "vine", "gry", "upid", "aider", "teach", "igni", "ignister", "ultimate", "angel", "vay", "vaylant", "vaylantz", "speedroid", "avat", "avatar", "witchcraf", "witchcrafter", "spatula", "powerful", "common", "patch", "poe", "search", "ied", "fra", "bear", "cold", "ced", "begins", "eful", "yellow", "ik", "clam", "controlled", "picture", "bled", "party", "utant", "worry", "buy", "cubic", "everybody", "generaider", "cardian", "madol", "madolche", "prankkids", "pizza", "horn", "zes", "emper", "myster", "mess", "cir", "cular", "cking", "nec", "learn", "dual", "point", "words", "angle", "battling", "tech", "eks", "cand", "vam", "bath", "boys", "puppet", "acoun", "bye", "danger!", "fach", "fachord", "au", "ils", "chil", "sometimes", "og", "reach", "stick", "perform", "depending", "begin", "hits", "reading", "thes", "ift", "feet", "virt", "alba", "armed", "saber", "equals", "desk", "shot", "involve", "gs", "idden", "pping", "ds", "ino", "phys", "slow", "queen", "late", "golden", "test", "ously", "vampire", "transfer", "alone", "stupid", "sault", "rating", "gys", "striker", "albaz", "neos", "dogmat", "zef", "neospac", "neospacian", "mayak", "throw", "onomato", "onomatopoe", "kaiju", "treasure", "against", "team", "zer", "wheel", "drops", "oj", "flame", "atic", "fully", "rub", "pper", "nintend", "graph", "finally", "thinking", "smell", "pir", "angry", "wi", "lightsworn", "gemini", "dragonmaid", "nity", "mayakashi", "go!", "frightfur", "yosenju", "morphtron", "morphtronic", "fool", "myutant", "theyre", "alal", "va", "ui", "umi", "tan", "iness", "proble", "stru", "aqua", "breaks", "capt", "case", "berry", "dead", "cked", "assault", "earthlevel", "yang", "closes", "ellar", "raw", "yl", "sforce", "tg", "back!", "tv", "leaving", "ci", "anchor", "uts", "uary", "slam", "dance", "ried", "style", "types", "bubbles", "childr", "cu", "mare", "synchron", "gogo", "gole", "je", "went", "nintendo", "gate", "dirty", "rescueace", "reptiletype", "tributes", "chronom", "chronomaly", "constellar", "sandys", "rings", "vern", "youn", "bag", "une", "empt", "lands", "cour", "acro", "ika", "captain", "shadow", "acles", "wom", "amount", "mand", "cou", "smi", "oper", "revealing", "rokket", "lv", "nordic", "insecttype", "darklord", "hey!", "karate", "kev", "fuck", "ities", "akes", "imag", "cries", "ours", "ory", "yo", "often", "owner", "20", "flow", "drive", "saw", "soon", "danc", "sad", "burst", "quar", "past", "building", "customers", "rope", "fab", "fingers", "five", "phantas", "up!", "pride", "lunal", "wonderful", "ugly", "sanct", "ddd", "solfachord", "drytron", "eh", "squidward?", "drives", "interest", "moth", "however", "onomatopoeia", "ume", "cause", "zek", "sto", "ering", "luck", "golem", "quant", "saved", "hungry", "matter", "regi", "nerv", "purr", "stard", "4atk", "valk", "earthbound", "zefra", "therion", "oh!", "lunalight", "ursarc", "ursarctic", "yell", "fact", "sweet", "surpr", "dim", "steal", "towards", "poison", "lic", "gent", "fields", "hone", "came", "loud", "orn", "thief", "standing", "squirrel", "mad", "taking", "destru", "sitting", "plays", "valky", "thys", "quish", "fluffal", "odle", "exo", "exosister", "gunk", "gunkan", "ojama", "whos", "pushes", "chuck", "o!", "mark", "layer", "alien", "amer", "ract", "amor", "mythical", "laun", "import", "year", "oppos", "aint", "breath", "bes", "hell", "za", "machina", "stardust", "colink", "colinked", "elevel", "battlin", "dogmatika", "galaxyeyes", "tellarknight", "ha!", "tonight", "parents", "sandy!", "var", "species", "forest", "fle", "mid", "bon", "placed", "armor", "vious", "craw", "male", "suppos", "supposed", "fear", "dumb", "suc", "pine", "count", "boxer", "highest", "koz", "iling", "skip", "poke", "doubled", "stus", "1200", "valkyri", "sanctuary", "neph", "nephthys", "zombietype", "springans", "symphon", "now?", "ay!", "wher", "this!", "ready!", "myself", "appearance", "ages", "wings", "bran", "prey", "inspiration", "boun", "sharp", "eats", "moving", "bug", "called", "ital", "base", "yu", "dle", "cup", "ku", "cast", "wal", "brand", "boss", "beet", "happened", "12", "frost", "opping", "dolph", "screaming", "beat", "tex", "edle", "chained", "randomly", "naturia", "tomor", "tomorrow", "e!", "preda", "absolut", "absolutely", "weve", "chair", "greek", "gard", "respect", "ors", "miss", "bling", "lab", "sco", "probab", "probably", "shakes", "ends", "ili", "impres", "sque", "shir", "visas", "unchained", "magistus", "levelrank", "yours", "road", "symphonic", "genex", "relax", "rasp", "squarepants", "ow!", "offscreen", "moun", "ming", "anyone", "cla", "wood", "gas", "sac", "sense", "parti", "blast", "sequ", "collect", "ener", "sole", "quir", "travel", "experi", "ention", "ump", "important", "luster", "tongue", "children", "sus", "closer", "fortune", "incident", "code", "yral", "virtual", "bowl", "hia", "watching", "rix", "ride", "sits", "gaia", "wants", "doodle", "purrely", "metalfoes", "punk", "lib", "this?", "problem", "anno", "push", "snow", "atin", "gest", "bul", "drawing", "sne", "grou", "champ", "dig", "brain", "course", "predator", "restler", "snail", "vant", "on!", "rac", "space", "week", "register", "dolphin", "asses", "bir", "gun", "efic", "math", "chooses", "starfrost", "buster", "meet", "inflicted", "aquat", "aquatype", "quickplay", "positions", "spyral", "kozmo", "waiting", "heres", "magikey", "scarec", "zood", "zoodiac", "raspberry", "hears", "annoy", "ed!", "texas", "strong", "foss", "ani", "young", "resh", "charge", "cial", "mega", "cannon", "guardian", "days", "causing", "child", "clim", "bom", "urer", "dad", "deser", "fabled", "candy", "scal", "across", "size", "stu", "scary", "born", "stands", "chocol", "santa", "exceed", "beastwarriortype", "success", "gimmi", "doct", "romancer", "pineapple", "scareclaw", "subterror", "patrick?", "dollar", "boy!", "write", "bucket", "pokemon", "suf", "iev", "mountain", "bol", "fru", "ham", "lives", "tro", "knew", "covered", "swim", "rot", "sleeping", "dust", "explo", "enemy", "buzz", "blad", "coral", "ji", "rem", "strike", "ets", "charm", "tee", "restaur", "dodo", "corr", "infin", "robot", "emer", "sat", "tie", "mud", "birth", "gles", "saying", "mermail", "inzek", "inzektor", "gusto", "cip", "chosen", "crus", "gimmick", "dinow", "dinowrestler", "nept", "kash", "kashti", "kashtira", "libromancer", "laments", "boots", "you?", "lifts", "!!!!!!!!", "suffix", "named", "span", "tails", "deli", "evolved", "spin", "fort", "particular", "single", "flowers", "city", "future", "energy", "short", "ension", "electricity", "pair", "cher", "mit", "helmet", "complet", "pyro", "feeling", "agent", "sen", "nem", "rew", "doors", "beach", "sets", "deal", "iff", "swords", "unequip", "valkyrie", "mikan", "mikanko", "mode", "dinosaurtype", "twin", "mekk", "arklevel", "meklord", "keepers", "gagaga", "shiran", "predaplant", "tearlaments", "formula", "wormy", "feed", "liz", "dress", "olo", "smo", "seed", "ature", "legendary", "appeared", "human", "oid", "nect", "rocks", "ram", "slams", "keeps", "egg", "drop", "dge", "chest", "ength", "plain", "champion", "cam", "jade", "ris", "mil", "techni", "button", "experience", "restaurant", "ike", "opposite", "inks", "gad", "woman", "stre", "attention", "anyway", "needs", "boh", "requir", "books", "destruction", "floats", "wouldnt", "scared", "angri", "fanta", "gish", "gishki", "grill", "inferno", "laval", "gravekeepers", "crusad", "infernity", "tind", "tindangle", "out!", "shiranui", "malefic", "chuckles", "there!", "right!", "me?", "patchy", "incidental", "console", "referring", "poor", "others", "places", "battery", "cash", "fran", "sick", "meta", "inv", "realiz", "sti", "flavor", "asc", "worth", "heral", "melod", "adventurer", "that!", "dinomorp", "dinomorphia", "musket", "arr", "street", "aye", "anymore", "boring", "kevin", "ism", "spanish", "ently", "giving", "ninj", "charac", "arti", "uni", "weak", "aring", "tsu", "init", "pot", "saf", "range", "chall", "tough", "creatures", "karak", "hood", "feather", "sever", "itsu", "mention", "orm", "increas", "excit", "tea", "song", "wick", "shark", "ane", "answ", "none", "rage", "noise", "ruin", "repe", "chir", "shake", "necro", "decrease", "gadget", "contract", "written", "crusadia", "kraw", "krawler", "hug", "icejade", "vanquish", "great!", "larry", "dragons", "stat", "slee", "uma", "oce", "nel", "third", "chim", "valley", "multiple", "pref", "gaz", "jack", "series", "mortal", "flames", "chase", "pin", "speak", "practi", "pil", "fairytype", "shoo", "lil", "shin", "skills", "finished", "thro", "technique", "applied", "fess", "singing", "letter", "memor", "seven", "frog", "terrible", "oy", "angrily", "melodious", "branded", "kuriboh", "silent", "appliancer", "shuffled", "orcust", "mekkknight", "time!", "heroic", "atest", "nervously", "walkie", "walkietalk", "aaaaaaaa", "eedle", "hide", "princess", "gave", "brea", "carry", "wra", "magnet", "wand", "fier", "stage", "event", "mam", "teeth", "lus", "volcan", "fig", "quickly", "utes", "fossil", "adium", "linked", "gam", "jam", "rocktype", "mobi", "fantastic", "adv", "anywhere", "edarklevel", "signal", "finger", "infernoid", "runick", "mathmech", "karakuri", "neptune", "greatest", "swordsoul", "pirate", "peeks", "office", "nah", "chec", "ender", "quiet", "enter", "sting", "jur", "ank", "arc", "visible", "generation", "claws", "suit", "fighting", "connect", "french", "stars", "ending", "whis", "dia", "cel", "butter", "rocket", "nal", "bite", "challen", "een", "share", "lie", "seas", "incred", "tu", "reads", "month", "crit", "surprise", "darkness", "famili", "fif", "park", "pieces", "nth", "father", "played", "sequence", "removing", "attributelevel", "qli", "forb", "rule", "deskbot", "doctor", "jok", "here?", "bike", "s?", "hoor", "wheres", "crazy", "do?", "driving", "cheese", "award", "sigh", "walkietalkie", "yall", "meh", "review", "lier", "capa", "hours", "ific", "vies", "aken", "fit", "ake", "join", "selves", "faster", "rik", "created", "shield", "crossing", "horse", "doom", "lid", "bull", "specially", "bbing", "wake", "ranks", "scri", "chal", "busy", "a!", "covers", "wakes", "chocolate", "acounter", "additional", "ister", "jac", "kinda", "isher", "2atk", "paying", "briga", "brigade", "appo", "windup", "havent", "now!", "nope", "krab!", "pickles", "h!", "garys", "grandma", "closeup", "interesting", "hob", "ties", "latin", "hop", "capable", "histor", "crim", "habit", "blood", "tel", "descri", "hurry", "storm", "match", "beginning", "ption", "excell", "1800", "engl", "chick", "dor", "aster", "ana", "confus", "emperor", "vision", "quite", "possessed", "stuck", "tentacles", "bill", "purple", "pocket", "spiritual", "whate", "graphics", "hides", "tired", "mobile", "tory", "wicked", "typeattributelevel", "typeattributelevelatkdef", "labry", "labrynth", "ius", "rips", "tribrigade", "discards", "forbidden", "couple", "crystron", "forever", "trapt", "vernus", "vernusyl", "vernusylph", "help!", "forgot", "aww", "shoe", "giggles", "orts", "jellyspot", "animals", "chine", "chinese", "various", "angu", "cas", "mystery", "fresh", "expres", "ments", "tive", "dies", "icy", "lik", "approach", "vill", "toward", "cheer", "fierce", "forms", "group", "wns", "yi", "heat", "nut", "bat", "leep", "previous", "extrem", "thri", "ately", "usually", "pengu", "dar", "venom", "snake", "eter", "garb", "igh", "numer", "chance", "command", "wol", "whatever", "talent", "crashes", "enly", "started", "weird", "clu", "writing", "3atk", "pies", "adjac", "adjacent", "frame", "amorpha", "amorphage", "servant", "nd", "metaphys", "noneffect", "rooper", "cipher", "longer", "shuffling", "gift", "suship", "annoyed", "knocks", "away!", "hate", "cons", "feat", "produ", "sail", "plate", "certain", "tub", "powers", "knot", "tures", "ively", "strength", "excellent", "thous", "thousand", "tit", "pup", "ife", "draco", "dan", "raid", "lian", "mend", "lies", "mart", "especially", "loves", "divine", "shr", "spark", "minute", "sticks", "las", "windlevel", "2nd", "rankup", "rankupmagic", "beetrooper", "darklevel", "immortal", "waterlevel", "cyberdark", "loser", "dinomist", "dracos", "dracoslayer", "increased", "yelling", "sniff", "krabs?", "hello?", "chum", "business", "quarter", "wallet", "shaped", "ara", "gather", "surface", "dex", "lli", "kon", "tions", "neck", "fill", "trust", "poll", "dump", "heal", "reason", "meat", "although", "tos", "stom", "asleep", "caught", "penguin", "seal", "subst", "devel", "horrible", "silver", "woo", "fancy", "11", "cles", "harder", "zen", "garbage", "vy", "haw", "stret", "sight", "noises", "lers", "extremely", "gray", "pack", "wasp", "telling", "note", "oyster", "infernoble", "hall", "ninjitsu", "familiar", "junk", "rikka", "hiy", "igknight", "expect", "promise", "moment", "traptrix", "wow!", "sighs", "day!", "bottle", "jellyfishing", "consider", "earlier", "kings", "upon", "straight", "rout", "spider", "icious", "ws", "jumping", "despite", "spend", "ky", "ingly", "blade", "tiny", "ocean", "ching", "accel", "item", "zed", "region", "cost", "mechan", "look!", "cave", "reci", "organ", "arri", "flash", "raction", "maj", "gle", "sue", "lightning", "reaches", "tot", "ative", "flam", "octop", "poli", "infl", "pillow", "several", "19", "fog", "float", "cape", "belong", "gum", "enix", "spits", "fore", "cli", "camera", "safe", "bies", "squeak", "aces", "stant", "chirp", "block", "cookie", "clothes", "nou", "batteryman", "typedarklevel", "2500", "swordsman", "save", "nobody", "definit", "forward", "disappo", "melff", "megal", "zw", "amid", "gh!", "one!", "goodbye", "underwear", "dear", "gary?", "excuse", "checks", "lege", "married", "gameplay", "ache", "lizard", "rite", "aval", "enty", "character", "kit", "artist", "ski", "dancing", "pes", "represent", "completely", "disgust", "english", "hon", "stem", "natural", "usion", "classic", "slowly", "hol", "version", "sock", "dent", "pile", "eventually", "customer", "loy", "tile", "minutes", "ade", "glow", "kicks", "normally", "drinks", "rainbow", "carni", "sell", "painting", "ager", "sacred", "question", "really?", "necrovalley", "talker", "remaining", "amaz", "myst", "nouvel", "nouvelles", "rd", "itor", "reson", "impcant", "impcantation", "sink", "honest", "rack", "windwitch", "megalith", "medium", "unif", "again!", "bunch", "gee", "speaking", "hiyah!", "ffff", "gram", "mytholo", "anime", "dun", "gor", "ults", "toy", "thus", "ode", "movie", "additionally", "ican", "haun", "ago", "surround", "borrow", "sudd", "itive", "snaps", "absor", "confused", "weight", "anting", "waves", "crew", "knock", "bass", "cow", "phoenix", "shirt", "tiger", "serious", "wolf", "garden", "continue", "wash", "memory", "zoom", "pets", "trash", "script", "rul", "xsaber", "thinks", "cit", "returning", "nemler", "definitely", "melffy", "exer", "stair", "triamid", "dressed", "cmon", "hmmm", "smiles", "crawls", "yes!", "sauce", "whist", "glasses", "jellyspotters", "college", "popular", "rum", "ari", "evolutionary", "given", "imit", "believ", "cats", "ae", "steel", "conce", "official", "ized", "wasnt", "shop", "striking", "learned", "ned", "ori", "antic", "fighter", "ashes", "50", "crown", "shoot", "cute", "store", "trou", "exist", "particularly", "nature", "develop", "famous", "enna", "bil", "thin", "ohn", "lusc", "sorcer", "strugg", "mann", "requires", "scul", "invisible", "date", "arent", "zaps", "amed", "dangerous", "forth", "noti", "acounters", "curtain", "anced", "adic", "amazement", "mystical", "lyri", "discarding", "chalice", "3rd", "volcanic", "blader", "gogogo", "evoltile", "happens", "country", "psyframe", "cope", "ooh", "hooray!", "steps", "quot", "mmm", "stop!", "pean", "him!", "cookies", "doodlebob", "thum", "grass", "alpha", "evolve", "trainers", "ella", "partner", "hidden", "pok\u00e9dex", "epis", "visit", "tin", "snee", "faces", "create", "als", "wer", "coon", "starting", "rex", "kel", "aku", "pill", "reflect", "fired", "state", "liter", "io", "apri", "april", "scr", "spiral", "allows", "mill", "beard", "load", "smile", "aes", "dev", "carnival", "syl", "ior", "stink", "replace", "vide", "proud", "string", "shari", "worse", "teacher", "ightlevel", "ogdo", "!!!", "eldli", "chup", "dice", "nemleria", "dreaming", "alarm", "lucky", "lyrilusc", "couldnt", "exerc", "totally", "right?", "boating", "neigh", "cheers", "john", "eedleeedle", "multiplayer", "fox", "zu", "skin", "ids", "ified", "area", "tool", "horror", "fil", "rabbit", "hunting", "arom", "thy", "map", "chas", "wishes", "belly", "bee", "build", "magaz", "elli", "ren", "intro", "putting", "mic", "30", "octopus", "contain", "trouble", "cere", "dwell", "dogs", "ral", "elike", "snor", "stun", "personal", "wide", "riding", "paint", "holes", "scales", "ann", "itar", "emp", "log", "bber", "offer", "arth", "novel", "gus", "eless", "empty", "castle", "limit", "breaking", "hearts", "burns", "adam", "reborn", "prison", "ogdoadic", "jinzo", "adds", "starfish", "hisher", "decks", "thundertype", "afraid", "brotherhood", "resonator", "cloudian", "2100", "license", "winner", "home!", "driver", "simor", "simorgh", "geargi", "dinner", "shall", "infinit", "infinitrack", "knows", "shes", "marble", "stairs", "is!", "hus", "book!", "sobbing", "uniform", "butt", "more!", "enters", "hobbies", "mustache", "lap", "patter", "wy", "sug", "prehistor", "prehistoric", "brilli", "squee", "cake", "monkey", "drum", "movies", "mim", "bodies", "clay", "wig", "talks", "features", "artif", "ultra", "ette", "greed", "attempt", "massive", "leader", "audi", "blaze", "beha", "behavi", "wave", "isk", "viol", "ada", "training", "hangs", "floating", "oran", "shiny", "smaller", "secre", "nar", "ragon", "leaf", "antenna", "mentioned", "circle", "pole", "weap", "strange", "fishing", "consum", "grows", "ised", "reptilian", "phantasm", "tray", "hammer", "hipp", "answer", "way!", "smells", "mate", "milk", "sandwi", "masked", "keys", "catches", "nick", "royal", "engine", "path", "hanging", "climb", "ers!", "loudly", "99", "2400", "advanced", "corn", "redu", "attraction", "searing", "ravi", "battlewasp", "chimera", "ruler", "acceler", "option", "tuners", "dude", "kisik", "kisikil", "lilla", "spright", "hier", "club", "husband", "besides", "ahh", "neighbor", "jokes", "alalalal", "everywhere", "yee", "bathroom", "leans", "essay", "sports", "fucking", "perha", "perhaps", "bli", "punch", "laby", "rin", "langu", "trees", "tooth", "suggest", "temper", "brilliant", "unic", "clif", "gling", "depic", "episode", "likely", "ended", "sla", "ease", "eag", "culture", "careful", "brought", "ency", "nation", "introdu", "mut", "vicious", "ido", "active", "challenge", "intense", "ify", "coff", "nine", "detached", "bum", "drawn", "needed", "victim", "ney", "history", "incredible", "sof", "corrup", "lift", "further", "spl", "too!", "escape", "tried", "monarch", "photo", "proper", "ias", "fat", "zero", "kiss", "mum", "arian", "muff", "sculp", "truck", "barrel", "profess", "cooking", "poo", "suddenly", "prove", "spa", "notice", "link3", "adamanc", "adamanci", "adamancipat", "adamancipator", "sylvan", "aesir", "atlant", "stream", "paid", "background", "recipe", "borrel", "substit", "1000def", "accelerator", "dimension", "ishment", "glove", "elementsaber", "instant", "hieratic", "worst", "aho", "mannadium", "grab", "cept", "lips", "kidding", "doing?", "ripped", "see?", "oooo", "silly", "fred", "hugs", "treed", "treedome", "us!", "somebody", "tick", "hurt", "in!", "exercise", "boatmobile", "scare", "meen", "achi", "crack", "branch", "crimson", "absolute", "deliver", "mol", "slu", "terr", "ita", "ably", "cliff", "concept", "general", "turtle", "themselves", "frust", "sucks", "rides", "direction", "channel", "italian", "wis", "gym", "weed", "phy", "spi", "plas", "cus", "increases", "letters", "bomb", "crab", "ander", "system", "antis", "honey", "scorp", "nu", "ished", "shoots", "news", "pump", "correct", "scratch", "strum", "imagin", "ata", "youd", "flor", "accord", "according", "ched", "souls", "lion", "gol", "cartoon", "wil", "windows", "pig", "blowing", "dread", "showing", "brings", "backwards", "pit", "artifact", "scra", "butterfly", "curse", "hyper", "heraldic", "4000", "lightlevel", "despair", "jet", "hamon", "wyrmtype", "graveyards", "cynet", "pitch", "message", "dreams", "satell", "disappoint", "mission", "maje", "majespect", "majespecter", "middle", "relaxing", "vyl", "vylon", "shouldnt", "ohh", "aha!", "happily", "penny", "feels", "somewhere", "ssss", "girls", "uhuh", "house!", "pants!", "basket", "yy", "impressed", "maniac", "sandwich", "sneezes", "muh", "az", "spoon", "queens", "odo", "flu", "smoke", "mystic", "18", "fel", "object", "ura", "mysterious", "works", "aru", "signature", "expression", "commonly", "gul", "watt", "nets", "kne", "within", "icle", "turned", "member", "awaken", "resembling", "beasts", "winter", "pollen", "ordin", "prefer", "winds", "eagle", "magazine", "intelli", "clus", "ala", "tt", "loved", "alive", "apart", "physical", "ply", "shock", "growing", "sunlight", "bark", "meaning", "deer", "ben", "pattern", "brown", "instrum", "demon", "sides", "dee", "process", "rather", "prec", "anga", "straw", "glar", "crush", "forehead", "mustard", "throat", "tem", "seat", "calm", "pipe", "broken", "seconds", "odd", "sage", "aceful", "teen", "recog", "shocked", "birthday", "boot", "conch", "rup", "eyed", "zor", "lops", "exam", "rated", "victory", "farm", "chases", "gained", "jacks", "uria", "phantasms", "charmer", "steam", "tamer", "unused", "byst", "bystial", "brush", "performage", "lowest", "slime", "vell", "flips", "successfully", "dododo", "steels", "steelswarm", "mistake", "mop", "avalon", "reptilianne", "umm", "starry", "accept", "ooh!", "slides", "shut", "zooms", "puff!", "what?!", "daught", "sniffs", "soap", "ketchup", "citiz", "idea!", "joke", "tape", "sandy?", "alone!", "mythology", "rever", "delicious", "rat", "fruit", "alol", "nuts", "ert", "aged", "causes", "ano", "post", "jan", "pod", "umbr", "taste", "ote", "dances", "colors", "ami", "barra", "includes", "gres", "issue", "bright", "rhy", "berg", "exclus", "ail", "ince", "port", "dom", "cleaning", "lett", "behavior", "phant", "split", "pose", "skel", "skelet", "aks", "parts", "bears", "excited", "ishes", "practice", "protection", "dome", "meant", "female", "shining", "tall", "frozen", "ants", "solid", "tight", "lying", "aver", "fang", "15", "shaking", "emplo", "mete", "lamp", "nightmare", "sculpture", "electrom", "electromag", "cone", "gentle", "ddle", "opped", "bushi", "accident", "exchange", "urm", "tad", "behe", "nonlink", "sorcerer", "thrill", "army", "wiz", "neme", "nemeses", "raviel", "zarc", "sheep", "substitute", "fishtype", "plane", "squeezes", "good!", "track", "mokey", "wife", "sunavalon", "fasc", "teles", "telescope", "ever!", "deserve", "audience", "hoo!", "writes", "daughter", "lolli", "police", "struggles", "money!", "know!", "squaw", "entertain", "lary", "edl", "edlele", "recom", "!!!!!!!!!!!!!!!!", "shares", "asso", "sely", "mountains", "nowhere", "territ", "mostly", "umes", "gur", "amax", "oil", "birds", "bam", "bamboo", "los", "eo", "mix", "doof", "sens", "loc", "diamon", "pik", "pikach", "closed", "poisonous", "ida", "bursts", "hund", "hundred", "hoo", "39", "explain", "owned", "origin", "kab", "symbol", "noc", "death", "whale", "needle", "likes", "company", "rece", "tip", "orange", "lock", "predic", "tured", "record", "fet", "jour", "originally", "highly", "hydro", "eel", "17", "iss", "cheeks", "rubber", "project", "fal", "spray", "venge", "nest", "illusion", "adult", "excitement", "brothers", "bunny", "ads", "deadly", "sci", "crime", "oked", "rei", "ruel", "rolling", "marsh", "elle", "throwing", "loyal", "nes", "headed", "pictures", "justice", "ogre", "eyel", "belt", "lick", "figure", "dents", "results", "plus", "micro", "ision", "prevent", "rays", "bouncing", "pare", "claus", "behemoth", "despia", "ghoti", "oll", "ples", "wield", "tosses", "eldlich", "fiendtypedarklevel", "vice", "tenyi", "rip", "guardragon", "jer", "jurrac", "knightmare", "planet", "lou", "numeron", "satellarknight", "quantum", "socks", "arrgh", "till", "imagines", "dollars", "tartar", "uho", "worried", "enough!", "whacks", "howdy", "licks", "comput", "fun!", "okay!", "evilly", "go?", "growls", "meep", "er!", "asking", "remin", "reminis", "reminiscent", "image", "lived", "period", "arcan", "revi", "ances", "grown", "pom", "manip", "manipul", "ym", "comfor", "wed", "ured", "balls", "ahead", "comm", "nearby", "asked", "fortress", "tradition", "jun", "evolves", "described", "aroma", "tank", "bidoof", "finds", "fights", "facial", "american", "secur", "diet", "distur", "shine", "prepar", "below", "freeze", "sex", "magma", "shri", "bush", "vul", "selene", "rate", "abilities", "stomach", "cele", "native", "sapp", "fail", "lon", "remind", "compar", "scorpion", "carrying", "vir", "chef", "local", "reck", "phe", "presents", "taps", "fold", "ceed", "drew", "cred", "kir", "literally", "oop", "radi", "thesis", "missing", "realizes", "acorn", "thor", "tale", "lan", "anti", "fiction", "releas", "spit", "thir", "kick", "hippo", "sort", "ars", "respective", "meth", "vest", "greater", "matt", "chief", "eaten", "simple", "dai", "40", "bles", "video", "sham", "avian", "goo", "holy", "laught", "rubs", "rein", "blind", "keeper", "elightlevel", "ators", "quit", "ifts", "pound", "wizard", "bushido", "oter", "sinister", "pointing", "thal", "apo", "man!", "breathing", "twins", "sab", "13", "floow", "floowand", "floowandere", "floowanderee", "floowandereeze", "wagon", "utop", "bread", "guitar", "complain", "eternity", "reef", "missed", "errand", "monitor", "upset", "know?", "shuts", "touches", "ya?", "hour", "blah", "barnacles", "whew", "maam", "gosh", "inhal", "buddy!", "frowns", "peanut", "ouch!", "citizens", "fools!", "doorbell", "drool", "escal", "recommend", "horns", "snakes", "alo", "humans", "rinth", "tus", "fruits", "kom", "believed", "roo", "berries", "sleeps", "appar", "comfortable", "antly", "soil", "function", "indic", "emo", "tically", "rapid", "harm", "hooks", "zi", "bucks", "ede", "village", "mary", "release", "pool", "ordinary", "aggres", "gence", "valu", "gment", "thick", "whenever", "storms", "plants", "pure", "lines", "coloration", "idence", "echo", "elephant", "trapped", "quire", "ences", "designed", "oul", "title", "cars", "held", "ruby", "letting", "bites", "liv", "drain", "separ", "iii", "chem", "press", "truth", "breed", "oni", "mighty", "synthesis", "bother", "regular", "pleas", "surf", "ping", "emin", "million", "science", "report", "hunt", "whirl", "ened", "bey", "locked", "ists", "confi", "epic", "method", "reveals", "opening", "ile", "ros", "licking", "suck", "hosp", "hospital", "buried", "urch", "mouse", "eyeb", "file", "stack", "plasma", "puffs", "worked", "vity", "responsi", "sui", "repeated", "libr", "hive", "malebran", "malebranche", "overlord", "merry", "pyrotype", "whichever", "bellion", "pand", "selects", "prediction", "hill", "successful", "breaker", "aba", "detaching", "lethal", "?def", "exec", "rules", "conducting", "optional", "prepare", "looked", "calling", "utopic", "graydle", "passion", "asty", "marty", "ww", "manager", "fascin", "confess", "holi", "pirates", "embarra", "embarrass", "sir!", "truly", "stares", "closet", "handle", "approaches", "lever", "tomato", "whispers", "inhales", "are!", "patties!", "lesson", "mean?", "never!", "clears", "plankton!", "boy?", "sweater", "trips", "ceiling", "suppose", "sure!", "ancho", "students", "jellyfishing!", "loop", "chops", "muscles", "coffee", "aaaaaaaaaaaaaaaa", "shit", "associ", "inch", "labyrinth", "nid", "blance", "inct"], "id2tok": {"0": "<PAD>", "1": "</w>", "2": "!", "3": "0", "4": "1", "5": "2", "6": "3", "7": "4", "8": "5", "9": "6", "10": "7", "11": "8", "12": "9", "13": "?", "14": "a", "15": "b", "16": "c", "17": "d", "18": "e", "19": "f", "20": "g", "21": "h", "22": "i", "23": "j", "24": "k", "25": "l", "26": "m", "27": "n", "28": "o", "29": "p", "30": "q", "31": "r", "32": "s", "33": "t", "34": "u", "35": "v", "36": "w", "37": "x", "38": "y", "39": "z", "40": "\u00e0", "41": "\u00e1", "42": "\u00e4", "43": "\u00e6", "44": "\u00e8", "45": "\u00e9", "46": "\u00ea", "47": "\u00ed", "48": "\u00ee", "49": "\u00ef", "50": "\u00f0", "51": "\u00f1", "52": "\u00f3", "53": "\u00f4", "54": "\u00f6", "55": "\u00f9", "56": "\u00fa", "57": "\u00fc", "58": "on", "59": "th", "60": "ou", "61": "er", "62": "an", "63": "you", "64": "ar", "65": "st", "66": "in", "67": "is", "68": "the", "69": "at", "70": "mon", "71": "ard", "72": "en", "73": "ec", "74": "ro", "75": "al", "76": "ster", "77": "card", "78": "monster", "79": "or", "80": "your", "81": "this", "82": "to", "83": "and", "84": "can", "85": "ac", "86": "ed", "87": "it", "88": "ur", "89": "el", "90": "le", "91": "of", "92": "ing", "93": "sp", "94": "se", "95": "um", "96": "ge", "97": "ef", "98": "ect", "99": "ra", "100": "ent", "101": "es", "102": "sum", "103": "summon", "104": "if", "105": "tur", "106": "rom", "107": "fect", "108": "turn", "109": "from", "110": "effect", "111": "ce", "112": "re", "113": "ial", "114": "pp", "115": "wh", "116": "ly", "117": "no", "118": "ont", "119": "de", "120": "att", "121": "as", "122": "monsters", "123": "ti", "124": "ve", "125": "am", "126": "spec", "127": "special", "128": "cont", "129": "rol", "130": "that", "131": "per", "132": "be", "133": "ri", "134": "opp", "135": "control", "136": "onent", "137": "opponent", "138": "get", "139": "fi", "140": "hand", "141": "ion", "142": "ch", "143": "end", "144": "by", "145": "dec", "146": "tar", "147": "ha", "148": "target", "149": "up", "150": "qu", "151": "once", "152": "un", "153": "ay", "154": "bo", "155": "do", "156": "dest", "157": "only", "158": "roy", "159": "ut", "160": "ith", "161": "me", "162": "destroy", "163": "ex", "164": "deck", "165": "ad", "166": "eld", "167": "gy", "168": "lo", "169": "li", "170": "field", "171": "not", "172": "ace", "173": "ack", "174": "for", "175": "po", "176": "gh", "177": "ach", "178": "with", "179": "vat", "180": "ell", "181": "00", "182": "us", "183": "acti", "184": "summoned", "185": "activat", "186": "ain", "187": "ir", "188": "ck", "189": "but", "190": "batt", "191": "face", "192": "when", "193": "ish", "194": "qui", "195": "its", "196": "use", "197": "so", "198": "battle", "199": "gra", "200": "faceup", "201": "atk", "202": "dur", "203": "during", "204": "cannot", "205": "vel", "206": "ke", "207": "tra", "208": "he", "209": "grave", "210": "yard", "211": "graveyard", "212": "attack", "213": "all", "214": "pl", "215": "cards", "216": "ther", "217": "ul", "218": "level", "219": "age", "220": "ol", "221": "each", "222": "then", "223": "ne", "224": "opponents", "225": "pha", "226": "om", "227": "spon", "228": "phase", "229": "spell", "230": "il", "231": "dam", "232": "sponge", "233": "bob", "234": "damage", "235": "ban", "236": "pt", "237": "ater", "238": "one", "239": "spongebob", "240": "sh", "241": "im", "242": "ght", "243": "banish", "244": "def", "245": "destroyed", "246": "dra", "247": "go", "248": "ow", "249": "pe", "250": "are", "251": "nor", "252": "ter", "253": "effects", "254": "ma", "255": "activate", "256": "mal", "257": "pos", "258": "exce", "259": "ver", "260": "except", "261": "ust", "262": "gain", "263": "ition", "264": "normal", "265": "whi", "266": "ts", "267": "add", "268": "ic", "269": "tri", "270": "id", "271": "oun", "272": "other", "273": "position", "274": "ta", "275": "ame", "276": "mater", "277": "material", "278": "ok", "279": "ty", "280": "out", "281": "controls", "282": "while", "283": "low", "284": "his", "285": "trap", "286": "ld", "287": "tribut", "288": "send", "289": "ig", "290": "my", "291": "xy", "292": "ate", "293": "ber", "294": "also", "295": "equi", "296": "fli", "297": "ste", "298": "ink", "299": "sent", "300": "any", "301": "xyz", "302": "play", "303": "her", "304": "was", "305": "have", "306": "gon", "307": "ore", "308": "we", "309": "ant", "310": "si", "311": "ble", "312": "ast", "313": "mo", "314": "sy", "315": "ense", "316": "hi", "317": "now", "318": "what", "319": "ation", "320": "pat", "321": "fus", "322": "wor", "323": "type", "324": "til", "325": "ward", "326": "ves", "327": "ers", "328": "fusion", "329": "until", "330": "defense", "331": "ill", "332": "co", "333": "ss", "334": "ry", "335": "neg", "336": "extra", "337": "rick", "338": "gains", "339": "ould", "340": "qual", "341": "equal", "342": "squi", "343": "tribute", "344": "way", "345": "pend", "346": "bec", "347": "more", "348": "ark", "349": "squid", "350": "reat", "351": "dragon", "352": "la", "353": "patrick", "354": "their", "355": "res", "356": "squidward", "357": "com", "358": "into", "359": "syn", "360": "pendul", "361": "pendulum", "362": "dis", "363": "ose", "364": "main", "365": "synch", "366": "od", "367": "ine", "368": "sc", "369": "af", "370": "ual", "371": "ear", "372": "zone", "373": "synchro", "374": "ni", "375": "set", "376": "op", "377": "draw", "378": "rit", "379": "ct", "380": "ound", "381": "rab", "382": "own", "383": "they", "384": "pped", "385": "ind", "386": "infli", "387": "ho", "388": "ff", "389": "uner", "390": "them", "391": "may", "392": "krab", "393": "like", "394": "num", "395": "ere", "396": "000", "397": "must", "398": "ab", "399": "ev", "400": "beast", "401": "number", "402": "ca", "403": "pi", "404": "dark", "405": "fer", "406": "app", "407": "than", "408": "negate", "409": "der", "410": "lea", "411": "su", "412": "link", "413": "step", "414": "lower", "415": "chan", "416": "uff", "417": "em", "418": "quick", "419": "500", "420": "activated", "421": "return", "422": "nt", "423": "discard", "424": "equip", "425": "ither", "426": "inal", "427": "poin", "428": "war", "429": "back", "430": "alk", "431": "thing", "432": "time", "433": "inflict", "434": "sel", "435": "equipped", "436": "spelltrap", "437": "ps", "438": "ritual", "439": "star", "440": "look", "441": "bl", "442": "just", "443": "take", "444": "place", "445": "mr", "446": "him", "447": "ph", "448": "rest", "449": "has", "450": "would", "451": "ey", "452": "ie", "453": "orig", "454": "oh", "455": "points", "456": "bu", "457": "some", "458": "gi", "459": "name", "460": "original", "461": "after", "462": "used", "463": "coun", "464": "lar", "465": "off", "466": "ess", "467": "sa", "468": "ever", "469": "ang", "470": "ak", "471": "banished", "472": "inc", "473": "wn", "474": "light", "475": "attacks", "476": "same", "477": "night", "478": "dif", "479": "ous", "480": "man", "481": "well", "482": "na", "483": "old", "484": "high", "485": "differ", "486": "change", "487": "et", "488": "kes", "489": "either", "490": "side", "491": "there", "492": "rior", "493": "con", "494": "counter", "495": "know", "496": "warrior", "497": "ary", "498": "gu", "499": "ext", "500": "ken", "501": "1000", "502": "red", "503": "right", "504": "how", "505": "stand", "506": "ving", "507": "krabs", "508": "over", "509": "make", "510": "fac", "511": "got", "512": "different", "513": "ice", "514": "lif", "515": "top", "516": "dont", "517": "who", "518": "tw", "519": "fish", "520": "read", "521": "here", "522": "ran", "523": "omes", "524": "water", "525": "run", "526": "ally", "527": "leaves", "528": "ru", "529": "using", "530": "becomes", "531": "lp", "532": "row", "533": "good", "534": "dir", "535": "sand", "536": "these", "537": "ga", "538": "tuner", "539": "less", "540": "det", "541": "shuff", "542": "ah", "543": "uh", "544": "king", "545": "ong", "546": "ough", "547": "those", "548": "detach", "549": "air", "550": "walk", "551": "ated", "552": "higher", "553": "bin", "554": "lose", "555": "fire", "556": "ure", "557": "ian", "558": "head", "559": "stead", "560": "sk", "561": "tom", "562": "token", "563": "instead", "564": "ies", "565": "wa", "566": "cur", "567": "combin", "568": "ll", "569": "cal", "570": "direct", "571": "mach", "572": "les", "573": "act", "574": "ved", "575": "select", "576": "players", "577": "player", "578": "activation", "579": "ep", "580": "treat", "581": "down", "582": "under", "583": "cy", "584": "edown", "585": "cul", "586": "both", "587": "ream", "588": "ins", "589": "facedown", "590": "fol", "591": "life", "592": "next", "593": "were", "594": "shuffle", "595": "day", "596": "pro", "597": "about", "598": "mag", "599": "ely", "600": "follow", "601": "lau", "602": "ite", "603": "another", "604": "let", "605": "materials", "606": "du", "607": "reve", "608": "reveal", "609": "tal", "610": "did", "611": "again", "612": "hero", "613": "arm", "614": "sandy", "615": "os", "616": "fir", "617": "par", "618": "ree", "619": "machine", "620": "fo", "621": "see", "622": "nont", "623": "every", "624": "laugh", "625": "wing", "626": "come", "627": "ity", "628": "knight", "629": "declar", "630": "nontuner", "631": "ames", "632": "our", "633": "gr", "634": "where", "635": "remo", "636": "dy", "637": "col", "638": "first", "639": "ting", "640": "resol", "641": "treated", "642": "fe", "643": "ome", "644": "following", "645": "even", "646": "rent", "647": "ton", "648": "eyes", "649": "takes", "650": "current", "651": "pay", "652": "ia", "653": "hal", "654": "elly", "655": "put", "656": "est", "657": "show", "658": "think", "659": "ase", "660": "bot", "661": "ye", "662": "lu", "663": "world", "664": "gary", "665": "combination", "666": "will", "667": "hey", "668": "anc", "669": "door", "670": "mi", "671": "ord", "672": "gl", "673": "rock", "674": "ence", "675": "want", "676": "whose", "677": "calcul", "678": "standby", "679": "calculation", "680": "negated", "681": "great", "682": "cho", "683": "300", "684": "bas", "685": "directly", "686": "jelly", "687": "sha", "688": "game", "689": "sec", "690": "does", "691": "ive", "692": "too", "693": "around", "694": "two", "695": "hel", "696": "earth", "697": "av", "698": "itch", "699": "tion", "700": "ot", "701": "ens", "702": "bar", "703": "wind", "704": "battles", "705": "cyber", "706": "magic", "707": "ways", "708": "ser", "709": "pan", "710": "flip", "711": "youre", "712": "ment", "713": "ribut", "714": "ning", "715": "ring", "716": "form", "717": "ai", "718": "attribut", "719": "cut", "720": "iat", "721": "yes", "722": "ks", "723": "fl", "724": "ag", "725": "targets", "726": "andor", "727": "ys", "728": "ears", "729": "vol", "730": "thats", "731": "mer", "732": "which", "733": "ull", "734": "book", "735": "walks", "736": "ip", "737": "tle", "738": "destroys", "739": "pre", "740": "say", "741": "pok", "742": "many", "743": "mar", "744": "black", "745": "still", "746": "ron", "747": "targeted", "748": "lit", "749": "become", "750": "names", "751": "fiend", "752": "atkdef", "753": "it!", "754": "pok\u00e9", "755": "ama", "756": "plant", "757": "fri", "758": "yeah", "759": "des", "760": "atch", "761": "love", "762": "hes", "763": "ouse", "764": "ise", "765": "rust", "766": "okay", "767": "min", "768": "away", "769": "ding", "770": "runs", "771": "cry", "772": "fun", "773": "going", "774": "jo", "775": "resolves", "776": "really", "777": "ement", "778": "cant", "779": "bur", "780": "jellyfish", "781": "declares", "782": "spir", "783": "tributing", "784": "start", "785": "car", "786": "ause", "787": "activates", "788": "200", "789": "patt", "790": "!!", "791": "she", "792": "word", "793": "pok\u00e9mon", "794": "cl", "795": "eat", "796": "stop", "797": "bet", "798": "bottom", "799": "rough", "800": "ide", "801": "led", "802": "dd", "803": "house", "804": "hold", "805": "based", "806": "din", "807": "ist", "808": "zon", "809": "because", "810": "ja", "811": "list", "812": "ue", "813": "tim", "814": "pa", "815": "summonedset", "816": "hear", "817": "cks", "818": "dr", "819": "tell", "820": "through", "821": "ass", "822": "gen", "823": "sw", "824": "spongebobs", "825": "med", "826": "rease", "827": "ready", "828": "ious", "829": "work", "830": "land", "831": "laughs", "832": "rel", "833": "apply", "834": "ign", "835": "mu", "836": "why", "837": "long", "838": "fly", "839": "attach", "840": "roll", "841": "te", "842": "mean", "843": "aby", "844": "currently", "845": "body", "846": "friend", "847": "100", "848": "ond", "849": "bre", "850": "bi", "851": "very", "852": "could", "853": "fall", "854": "been", "855": "iz", "856": "levels", "857": "che", "858": "mor", "859": "pr", "860": "ful", "861": "bble", "862": "new", "863": "never", "864": "leg", "865": "super", "866": "need", "867": "sor", "868": "element", "869": "little", "870": "drag", "871": "had", "872": "cra", "873": "ki", "874": "rank", "875": "remove", "876": "tic", "877": "loses", "878": "squ", "879": "attribute", "880": "total", "881": "800", "882": "tributed", "883": "plan", "884": "zom", "885": "possi", "886": "invol", "887": "ult", "888": "able", "889": "rusty", "890": "pal", "891": "boy", "892": "pri", "893": "increase", "894": "lord", "895": "win", "896": "bie", "897": "krusty", "898": "self", "899": "looks", "900": "ror", "901": "pres", "902": "talk", "903": "sea", "904": "?!", "905": "ko", "906": "fair", "907": "bubble", "908": "cle", "909": "counters", "910": "ze", "911": "contin", "912": "zombie", "913": "second", "914": "scream", "915": "sm", "916": "decl", "917": "ance", "918": "declare", "919": "ler", "920": "best", "921": "caster", "922": "fur", "923": "affect", "924": "sho", "925": "elemental", "926": "clo", "927": "gre", "928": "insect", "929": "spellcaster", "930": "ling", "931": "pow", "932": "stor", "933": "jum", "934": "try", "935": "bs", "936": "big", "937": "cyberse", "938": "gonna", "939": "sal", "940": "aa", "941": "spongebob!", "942": "val", "943": "affected", "944": "give", "945": "attacking", "946": "s!", "947": "peop", "948": "half", "949": "non", "950": "puts", "951": "wait", "952": "should", "953": "rand", "954": "evol", "955": "ient", "956": "always", "957": "winged", "958": "ight", "959": "nin", "960": "ash", "961": "sam", "962": "unaffected", "963": "happ", "964": "mus", "965": "ene", "966": "gets", "967": "magician", "968": "people", "969": "dri", "970": "attacked", "971": "sou", "972": "ses", "973": "much", "974": "2000", "975": "continu", "976": "bor", "977": "call", "978": "fairy", "979": "ref", "980": "dou", "981": "kid", "982": "most", "983": "arch", "984": "creat", "985": "sound", "986": "aw", "987": "ick", "988": "vi", "989": "home", "990": "flo", "991": "bel", "992": "cts", "993": "tokens", "994": "being", "995": "sure", "996": "son", "997": "owners", "998": "without", "999": "samur", "1000": "mas", "1001": "turns", "1002": "bef", "1003": "ground", "1004": "samurai", "1005": "something", "1006": "fa", "1007": "inflicts", "1008": "di", "1009": "three", "1010": "10", "1011": "patty", "1012": "ating", "1013": "ged", "1014": "meow", "1015": "ype", "1016": "evil", "1017": "exact", "1018": "before", "1019": "dream", "1020": "gho", "1021": "box", "1022": "immed", "1023": "bus", "1024": "six", "1025": "immediat", "1026": "immediately", "1027": "hands", "1028": "hor", "1029": "zones", "1030": "inside", "1031": "sing", "1032": "exactly", "1033": "ancient", "1034": "possible", "1035": "power", "1036": "help", "1037": "neither", "1038": "cryst", "1039": "ny", "1040": "tor", "1041": "mm", "1042": "rep", "1043": "flying", "1044": "gal", "1045": "involving", "1046": "tty", "1047": "abyss", "1048": "spe", "1049": "cing", "1050": "dow", "1051": "ought", "1052": "saur", "1053": "ator", "1054": "oo", "1055": "inclu", "1056": "summons", "1057": "blue", "1058": "said", "1059": "glad", "1060": "iny", "1061": "ten", "1062": "goes", "1063": "sur", "1064": "sun", "1065": "ple", "1066": "tru", "1067": "ger", "1068": "times", "1069": "fr", "1070": "ical", "1071": "ship", "1072": "vis", "1073": "ba", "1074": "ture", "1075": "starts", "1076": "ird", "1077": "lets", "1078": "ents", "1079": "rec", "1080": "zz", "1081": "sky", "1082": "soul", "1083": "pants", "1084": "sess", "1085": "sem", "1086": "har", "1087": "ka", "1088": "everyone", "1089": "shows", "1090": "sle", "1091": "ghost", "1092": "dog", "1093": "cor", "1094": "ball", "1095": "sign", "1096": "ju", "1097": "400", "1098": "appears", "1099": "order", "1100": "ner", "1101": "lad", "1102": "blow", "1103": "sorry", "1104": "pen", "1105": "comes", "1106": "exca", "1107": "excavat", "1108": "sends", "1109": "ans", "1110": "stri", "1111": "dro", "1112": "possess", "1113": "huh", "1114": "whats", "1115": "heav", "1116": "gold", "1117": "doing", "1118": "eye", "1119": "thunder", "1120": "break", "1121": "reme", "1122": "no!", "1123": "ven", "1124": "arms", "1125": "real", "1126": "perfor", "1127": "uck", "1128": "ft", "1129": "chain", "1130": "ech", "1131": "ort", "1132": "opens", "1133": "feel", "1134": "sim", "1135": "ions", "1136": "makes", "1137": "sword", "1138": "rows", "1139": "dol", "1140": "pho", "1141": "choose", "1142": "screams", "1143": "plank", "1144": "osaur", "1145": "spirit", "1146": "pier", "1147": "krabby", "1148": "zing", "1149": "including", "1150": "noble", "1151": "random", "1152": "ret", "1153": "gener", "1154": "bro", "1155": "money", "1156": "lease", "1157": "performa", "1158": "performapal", "1159": "resem", "1160": "stra", "1161": "oud", "1162": "int", "1163": "ket", "1164": "crystal", "1165": "tail", "1166": "maid", "1167": "better", "1168": "please", "1169": "plankton", "1170": "kind", "1171": "pull", "1172": "ontype", "1173": "phan", "1174": "duel", "1175": "mir", "1176": "psy", "1177": "wan", "1178": "iator", "1179": "bad", "1180": "1500", "1181": "piercing", "1182": "mis", "1183": "ates", "1184": "cook", "1185": "watch", "1186": "dragontype", "1187": "abo", "1188": "art", "1189": "bit", "1190": "dinosaur", "1191": "fin", "1192": "vo", "1193": "ya", "1194": "beastwarrior", "1195": "bal", "1196": "anything", "1197": "last", "1198": "gladiator", "1199": "room", "1200": "salam", "1201": "unk", "1202": "uhh", "1203": "squidward!", "1204": "appear", "1205": "ild", "1206": "net", "1207": "skill", "1208": "nice", "1209": "white", "1210": "ily", "1211": "result", "1212": "bra", "1213": "falls", "1214": "irl", "1215": "flipped", "1216": "cri", "1217": "refer", "1218": "move", "1219": "da", "1220": "vent", "1221": "piec", "1222": "fro", "1223": "repti", "1224": "que", "1225": "bed", "1226": "addition", "1227": "paper", "1228": "hind", "1229": "made", "1230": "law", "1231": "lam", "1232": "removed", "1233": "ele", "1234": "imp", "1235": "continuous", "1236": "jumps", "1237": "kids", "1238": "hy", "1239": "ese", "1240": "boo", "1241": "part", "1242": "ub", "1243": "double", "1244": "exc", "1245": "nothing", "1246": "puff", "1247": "phantom", "1248": "mrs", "1249": "mou", "1250": "sol", "1251": "reas", "1252": "beg", "1253": "changed", "1254": "cool", "1255": "dut", "1256": "ually", "1257": "cro", "1258": "nat", "1259": "umn", "1260": "jin", "1261": "banishing", "1262": "left", "1263": "scene", "1264": "uses", "1265": "hard", "1266": "rong", "1267": "fam", "1268": "pur", "1269": "later", "1270": "found", "1271": "gasp", "1272": "writ", "1273": "joy", "1274": "declared", "1275": "front", "1276": "find", "1277": "dition", "1278": "column", "1279": "ically", "1280": "behind", "1281": "key", "1282": "br", "1283": "wear", "1284": "wish", "1285": "tain", "1286": "mouth", "1287": "summoning", "1288": "salamang", "1289": "salamangreat", "1290": "squidwards", "1291": "above", "1292": "ug", "1293": "ters", "1294": "0def", "1295": "ress", "1296": "mind", "1297": "cer", "1298": "hun", "1299": "giant", "1300": "kin", "1301": "mirror", "1302": "wow", "1303": "possession", "1304": "switch", "1305": "sleep", "1306": "acle", "1307": "guy", "1308": "scar", "1309": "ula", "1310": "open", "1311": "tran", "1312": "blackwing", "1313": "heavy", "1314": "hat", "1315": "fight", "1316": "island", "1317": "inter", "1318": "window", "1319": "dutch", "1320": "selected", "1321": "ider", "1322": "elect", "1323": "char", "1324": "keep", "1325": "crow", "1326": "thought", "1327": "ale", "1328": "unless", "1329": "zo", "1330": "holds", "1331": "sending", "1332": "cr", "1333": "shi", "1334": "stops", "1335": "boat", "1336": "dutchman", "1337": "guess", "1338": "seen", "1339": "iron", "1340": "scre", "1341": "destiny", "1342": "typ", "1343": "ms", "1344": "cust", "1345": "ignor", "1346": "food", "1347": "chic", "1348": "anger", "1349": "thanks", "1350": "vers", "1351": "machinetype", "1352": "me!", "1353": "pick", "1354": "die", "1355": "didnt", "1356": "gear", "1357": "grabs", "1358": "phases", "1359": "resemble", "1360": "tun", "1361": "kar", "1362": "combined", "1363": "ush", "1364": "spells", "1365": "aqu", "1366": "witch", "1367": "sir", "1368": "heart", "1369": "pretty", "1370": "gasps", "1371": "ution", "1372": "arl", "1373": "yr", "1374": "cuts", "1375": "huh?", "1376": "live", "1377": "incess", "1378": "sil", "1379": "lady", "1380": "true", "1381": "condition", "1382": "pu", "1383": "tries", "1384": "uce", "1385": "bun", "1386": "enough", "1387": "creature", "1388": "girl", "1389": "fav", "1390": "ted", "1391": "psychic", "1392": "swe", "1393": "mber", "1394": "lot", "1395": "600", "1396": "ier", "1397": "infer", "1398": "roid", "1399": "beasttype", "1400": "uri", "1401": "inspir", "1402": "pred", "1403": "ire", "1404": "nose", "1405": "wall", "1406": "sna", "1407": "bow", "1408": "sees", "1409": "1atk", "1410": "pulls", "1411": "ats", "1412": "oc", "1413": "known", "1414": "reptile", "1415": "force", "1416": "barn", "1417": "crowd", "1418": "attached", "1419": "gala", "1420": "speed", "1421": "ee", "1422": "mel", "1423": "rai", "1424": "remain", "1425": "galaxy", "1426": "shar", "1427": "theres", "1428": "maybe", "1429": "eck", "1430": "san", "1431": "fan", "1432": "screen", "1433": "toon", "1434": "such", "1435": "seem", "1436": "pic", "1437": "ouch", "1438": "friends", "1439": "doll", "1440": "betwe", "1441": "between", "1442": "conditions", "1443": "del", "1444": "bird", "1445": "sli", "1446": "pearl", "1447": "ap", "1448": "piece", "1449": "tron", "1450": "ignoring", "1451": "wise", "1452": "table", "1453": "sar", "1454": "guard", "1455": "ath", "1456": "eas", "1457": "poly", "1458": "secret", "1459": "osen", "1460": "!!!!", "1461": "spect", "1462": "master", "1463": "vie", "1464": "ather", "1465": "music", "1466": "ptor", "1467": "laughing", "1468": "patricks", "1469": "bea", "1470": "himself", "1471": "dum", "1472": "free", "1473": "hello", "1474": "favor", "1475": "japan", "1476": "van", "1477": "sounds", "1478": "ninja", "1479": "grand", "1480": "phone", "1481": "ived", "1482": "ides", "1483": "alter", "1484": "least", "1485": "outs", "1486": "resolve", "1487": "warriortype", "1488": "listen", "1489": "rap", "1490": "ric", "1491": "bri", "1492": "blo", "1493": "danger", "1494": "ness", "1495": "gives", "1496": "ization", "1497": "cha", "1498": "lights", "1499": "planttype", "1500": "odde", "1501": "oddeyes", "1502": "bell", "1503": "appro", "1504": "story", "1505": "ures", "1506": "bud", "1507": "coming", "1508": "metal", "1509": "twice", "1510": "respon", "1511": "tend", "1512": "tr", "1513": "flower", "1514": "bring", "1515": "pain", "1516": "amazon", "1517": "cent", "1518": "bly", "1519": "shell", "1520": "actor", "1521": "ker", "1522": "catch", "1523": "fine", "1524": "you!", "1525": "anim", "1526": "derived", "1527": "things", "1528": "bla", "1529": "sub", "1530": "pie", "1531": "duct", "1532": "bikin", "1533": "bikini", "1534": "though", "1535": "ancer", "1536": "plac", "1537": "exp", "1538": "max", "1539": "trans", "1540": "summonset", "1541": "polymer", "1542": "amazoness", "1543": "spongebob?", "1544": "line", "1545": "ction", "1546": "lim", "1547": "mat", "1548": "voice", "1549": "polymerization", "1550": "gg", "1551": "met", "1552": "kee", "1553": "took", "1554": "trick", "1555": "fing", "1556": "bing", "1557": "revealed", "1558": "enjoy", "1559": "toge", "1560": "otherwise", "1561": "wo", "1562": "japanese", "1563": "barnacle", "1564": "gar", "1565": "playing", "1566": "thank", "1567": "getting", "1568": "magi", "1569": "stuff", "1570": "dic", "1571": "color", "1572": "beaut", "1573": "supp", "1574": "stay", "1575": "spellcastertype", "1576": "battled", "1577": "patrick!", "1578": "evolution", "1579": "gig", "1580": "having", "1581": "atter", "1582": "whe", "1583": "mek", "1584": "done", "1585": "rist", "1586": "draws", "1587": "wrong", "1588": "raidra", "1589": "raidraptor", "1590": "throws", "1591": "what?", "1592": "don", "1593": "sin", "1594": "ident", "1595": "won", "1596": "sit", "1597": "outside", "1598": "photon", "1599": "today", "1600": "superheavy", "1601": "lay", "1602": "ato", "1603": "ute", "1604": "person", "1605": "ics", "1606": "looking", "1607": "dry", "1608": "board", "1609": "excavate", "1610": "picks", "1611": "y!", "1612": "gaga", "1613": "patties", "1614": "ls", "1615": "amp", "1616": "close", "1617": "favorite", "1618": "leave", "1619": "iru", "1620": "elf", "1621": "wards", "1622": "sed", "1623": "3000", "1624": "drink", "1625": "conduct", "1626": "remember", "1627": "pop", "1628": "worm", "1629": "small", "1630": "mul", "1631": "ones", "1632": "halved", "1633": "lin", "1634": "hum", "1635": "idea", "1636": "enem", "1637": "enemies", "1638": "irt", "1639": "moves", "1640": "ing!", "1641": "sold", "1642": "controller", "1643": "discarded", "1644": "ilar", "1645": "specif", "1646": "together", "1647": "prot", "1648": "hair", "1649": "ided", "1650": "str", "1651": "ashi", "1652": "making", "1653": "hire", "1654": "unity", "1655": "already", "1656": "ium", "1657": "tear", "1658": "sn", "1659": "den", "1660": "electric", "1661": "loon", "1662": "clean", "1663": "lun", "1664": "uto", "1665": "drac", "1666": "ina", "1667": "aki", "1668": "happen", "1669": "cket", "1670": "sym", "1671": "cover", "1672": "hu", "1673": "ii", "1674": "eng", "1675": "green", "1676": "isnt", "1677": "band", "1678": "kis", "1679": "straps", "1680": "blows", "1681": "animal", "1682": "grow", "1683": "deep", "1684": "ped", "1685": "myth", "1686": "tree", "1687": "pass", "1688": "protect", "1689": "mom", "1690": "train", "1691": "entire", "1692": "multi", "1693": "chi", "1694": "balloon", "1695": "spring", "1696": "far", "1697": "mine", "1698": "difference", "1699": "notic", "1700": "talking", "1701": "spellstraps", "1702": "text", "1703": "wait!", "1704": "specifically", "1705": "acc", "1706": "final", "1707": "gue", "1708": "arn", "1709": "els", "1710": "running", "1711": "era", "1712": "burning", "1713": "gri", "1714": "baby", "1715": "floor", "1716": "finish", "1717": "sister", "1718": "gotta", "1719": "archfiend", "1720": "lant", "1721": "everything", "1722": "krabs!", "1723": "aaaa", "1724": "cre", "1725": "due", "1726": "trying", "1727": "returned", "1728": "natur", "1729": "mermaid", "1730": "custom", "1731": "700", "1732": "christ", "1733": "pent", "1734": "ces", "1735": "vic", "1736": "const", "1737": "sty", "1738": "psychictype", "1739": "hang", "1740": "roz", "1741": "appli", "1742": "buddy", "1743": "marincess", "1744": "sion", "1745": "near", "1746": "ench", "1747": "magical", "1748": "nek", "1749": "pink", "1750": "whole", "1751": "blueeyes", "1752": "doesnt", "1753": "pun", "1754": "games", "1755": "abil", "1756": "sive", "1757": "geist", "1758": "response", "1759": "listed", "1760": "terror", "1761": "traps", "1762": "neo", "1763": "desp", "1764": "stic", "1765": "beautif", "1766": "mech", "1767": "reference", "1768": "choice", "1769": "edge", "1770": "tied", "1771": "clar", "1772": "ray", "1773": "flies", "1774": "gou", "1775": "understand", "1776": "redeyes", "1777": "shad", "1778": "shaddoll", "1779": "ghostrick", "1780": "similar", "1781": "reg", "1782": "hook", "1783": "hur", "1784": "ison", "1785": "depend", "1786": "hot", "1787": "years", "1788": "wonder", "1789": "altergeist", "1790": "gouki", "1791": "spot", "1792": "offi", "1793": "class", "1794": "moon", "1795": "rier", "1796": "view", "1797": "scale", "1798": "formation", "1799": "heads", "1800": "ieve", "1801": "antas", "1802": "yet", "1803": "chool", "1804": "wel", "1805": "reduce", "1806": "hope", "1807": "warriors", "1808": "nekroz", "1809": "wanna", "1810": "square", "1811": "beautiful", "1812": "kai", "1813": "lect", "1814": "pet", "1815": "fla", "1816": "it?", "1817": "sup", "1818": "pers", "1819": "soldier", "1820": "wont", "1821": "kno", "1822": "job", "1823": "scrap", "1824": "morning", "1825": "excavated", "1826": "koaki", "1827": "meiru", "1828": "dragunity", "1829": "nam", "1830": "ops", "1831": "por", "1832": "large", "1833": "ging", "1834": "cap", "1835": "taken", "1836": "present", "1837": "comp", "1838": "living", "1839": "gust", "1840": "mother", "1841": "ek", "1842": "fist", "1843": "school", "1844": "ushes", "1845": "youve", "1846": "pops", "1847": "ax", "1848": "family", "1849": "jump", "1850": "fu", "1851": "ali", "1852": "almost", "1853": "onto", "1854": "heard", "1855": "serpent", "1856": "perfect", "1857": "else", "1858": "amazing", "1859": "lists", "1860": "hip", "1861": "kitch", "1862": "notices", "1863": "design", "1864": "ob", "1865": "itself", "1866": "warm", "1867": "ley", "1868": "action", "1869": "cloud", "1870": "acy", "1871": "might", "1872": "crash", "1873": "town", "1874": "men", "1875": "few", "1876": "aly", "1877": "awes", "1878": "here!", "1879": "ches", "1880": "cat", "1881": "gem", "1882": "fallen", "1883": "eating", "1884": "tent", "1885": "remains", "1886": "foot", "1887": "haha", "1888": "added", "1889": "morph", "1890": "toss", "1891": "halve", "1892": "awesome", "1893": "dinom", "1894": "guys", "1895": "happy", "1896": "cross", "1897": "claw", "1898": "ask", "1899": "advent", "1900": "returns", "1901": "holding", "1902": "resc", "1903": "clear", "1904": "phon", "1905": "attributes", "1906": "vend", "1907": "christmas", "1908": "kitchen", "1909": "lol", "1910": "fix", "1911": "since", "1912": "burn", "1913": "hole", "1914": "someone", "1915": "gone", "1916": "coin", "1917": "patroll", "1918": "hmm", "1919": "ua", "1920": "wyr", "1921": "glass", "1922": "harpie", "1923": "clarine", "1924": "actually", "1925": "legs", "1926": "tre", "1927": "wild", "1928": "zy", "1929": "ix", "1930": "care", "1931": "ellow", "1932": "knights", "1933": "believe", "1934": "squir", "1935": "skull", "1936": "ah!", "1937": "fiendtype", "1938": "plunder", "1939": "bujin", "1940": "arknight", "1941": "working", "1942": "trickstar", "1943": "spat", "1944": "pizz", "1945": "resembles", "1946": "onom", "1947": "shown", "1948": "cream", "1949": "kill", "1950": "acks", "1951": "full", "1952": "py", "1953": "bab", "1954": "cess", "1955": "prom", "1956": "jar", "1957": "cil", "1958": "wyrm", "1959": "chaos", "1960": "bound", "1961": "says", "1962": "clarinet", "1963": "shape", "1964": "absol", "1965": "fluff", "1966": "allow", "1967": "rain", "1968": "mong", "1969": "foes", "1970": "core", "1971": "cub", "1972": "four", "1973": "ultim", "1974": "pupp", "1975": "brother", "1976": "echa", "1977": "continues", "1978": "barrier", "1979": "walking", "1980": "chron", "1981": "funny", "1982": "yourself", "1983": "fry", "1984": "that?", "1985": "potty", "1986": "spo", "1987": "huge", "1988": "lead", "1989": "rible", "1990": "rose", "1991": "mecha", "1992": "mini", "1993": "forget", "1994": "weather", "1995": "rescue", "1996": "mail", "1997": "sixs", "1998": "sixsided", "1999": "supreme", "2000": "pia", "2001": "welcome", "2002": "worn", "2003": "peri", "2004": "seems", "2005": "among", "2006": "check", "2007": "rolls", "2008": "touch", "2009": "told", "2010": "changes", "2011": "aking", "2012": "ief", "2013": "fright", "2014": "craf", "2015": "sarc", "2016": "yosen", "2017": "utopia", "2018": "iac", "2019": "pencil", "2020": "ery", "2021": "ible", "2022": "mist", "2023": "wearing", "2024": "treas", "2025": "ises", "2026": "god", "2027": "ught", "2028": "hit", "2029": "mentions", "2030": "clock", "2031": "sl", "2032": "kuri", "2033": "gim", "2034": "tears", "2035": "crying", "2036": "appropri", "2037": "appropriate", "2038": "targeting", "2039": "youll", "2040": "hh", "2041": "gary!", "2042": "stone", "2043": "possibly", "2044": "dist", "2045": "fre", "2046": "kan", "2047": "round", "2048": "rok", "2049": "ines", "2050": "ability", "2051": "gan", "2052": "pire", "2053": "means", "2054": "wanted", "2055": "union", "2056": "buil", "2057": "ations", "2058": "fortun", "2059": "spellbook", "2060": "prank", "2061": "ular", "2062": "ings", "2063": "anch", "2064": "ject", "2065": "quest", "2066": "fast", "2067": "aur", "2068": "vely", "2069": "orp", "2070": "shoes", "2071": "vor", "2072": "easy", "2073": "spac", "2074": "gemknight", "2075": "legacy", "2076": "vendread", "2077": "yeah!", "2078": "alright", "2079": "ons", "2080": "apple", "2081": "gree", "2082": "inspired", "2083": "ries", "2084": "gro", "2085": "along", "2086": "lost", "2087": "legend", "2088": "ited", "2089": "ount", "2090": "mask", "2091": "vine", "2092": "gry", "2093": "upid", "2094": "aider", "2095": "teach", "2096": "igni", "2097": "ignister", "2098": "ultimate", "2099": "angel", "2100": "vay", "2101": "vaylant", "2102": "vaylantz", "2103": "speedroid", "2104": "avat", "2105": "avatar", "2106": "witchcraf", "2107": "witchcrafter", "2108": "spatula", "2109": "powerful", "2110": "common", "2111": "patch", "2112": "poe", "2113": "search", "2114": "ied", "2115": "fra", "2116": "bear", "2117": "cold", "2118": "ced", "2119": "begins", "2120": "eful", "2121": "yellow", "2122": "ik", "2123": "clam", "2124": "controlled", "2125": "picture", "2126": "bled", "2127": "party", "2128": "utant", "2129": "worry", "2130": "buy", "2131": "cubic", "2132": "everybody", "2133": "generaider", "2134": "cardian", "2135": "madol", "2136": "madolche", "2137": "prankkids", "2138": "pizza", "2139": "horn", "2140": "zes", "2141": "emper", "2142": "myster", "2143": "mess", "2144": "cir", "2145": "cular", "2146": "cking", "2147": "nec", "2148": "learn", "2149": "dual", "2150": "point", "2151": "words", "2152": "angle", "2153": "battling", "2154": "tech", "2155": "eks", "2156": "cand", "2157": "vam", "2158": "bath", "2159": "boys", "2160": "puppet", "2161": "acoun", "2162": "bye", "2163": "danger!", "2164": "fach", "2165": "fachord", "2166": "au", "2167": "ils", "2168": "chil", "2169": "sometimes", "2170": "og", "2171": "reach", "2172": "stick", "2173": "perform", "2174": "depending", "2175": "begin", "2176": "hits", "2177": "reading", "2178": "thes", "2179": "ift", "2180": "feet", "2181": "virt", "2182": "alba", "2183": "armed", "2184": "saber", "2185": "equals", "2186": "desk", "2187": "shot", "2188": "involve", "2189": "gs", "2190": "idden", "2191": "pping", "2192": "ds", "2193": "ino", "2194": "phys", "2195": "slow", "2196": "queen", "2197": "late", "2198": "golden", "2199": "test", "2200": "ously", "2201": "vampire", "2202": "transfer", "2203": "alone", "2204": "stupid", "2205": "sault", "2206": "rating", "2207": "gys", "2208": "striker", "2209": "albaz", "2210": "neos", "2211": "dogmat", "2212": "zef", "2213": "neospac", "2214": "neospacian", "2215": "mayak", "2216": "throw", "2217": "onomato", "2218": "onomatopoe", "2219": "kaiju", "2220": "treasure", "2221": "against", "2222": "team", "2223": "zer", "2224": "wheel", "2225": "drops", "2226": "oj", "2227": "flame", "2228": "atic", "2229": "fully", "2230": "rub", "2231": "pper", "2232": "nintend", "2233": "graph", "2234": "finally", "2235": "thinking", "2236": "smell", "2237": "pir", "2238": "angry", "2239": "wi", "2240": "lightsworn", "2241": "gemini", "2242": "dragonmaid", "2243": "nity", "2244": "mayakashi", "2245": "go!", "2246": "frightfur", "2247": "yosenju", "2248": "morphtron", "2249": "morphtronic", "2250": "fool", "2251": "myutant", "2252": "theyre", "2253": "alal", "2254": "va", "2255": "ui", "2256": "umi", "2257": "tan", "2258": "iness", "2259": "proble", "2260": "stru", "2261": "aqua", "2262": "breaks", "2263": "capt", "2264": "case", "2265": "berry", "2266": "dead", "2267": "cked", "2268": "assault", "2269": "earthlevel", "2270": "yang", "2271": "closes", "2272": "ellar", "2273": "raw", "2274": "yl", "2275": "sforce", "2276": "tg", "2277": "back!", "2278": "tv", "2279": "leaving", "2280": "ci", "2281": "anchor", "2282": "uts", "2283": "uary", "2284": "slam", "2285": "dance", "2286": "ried", "2287": "style", "2288": "types", "2289": "bubbles", "2290": "childr", "2291": "cu", "2292": "mare", "2293": "synchron", "2294": "gogo", "2295": "gole", "2296": "je", "2297": "went", "2298": "nintendo", "2299": "gate", "2300": "dirty", "2301": "rescueace", "2302": "reptiletype", "2303": "tributes", "2304": "chronom", "2305": "chronomaly", "2306": "constellar", "2307": "sandys", "2308": "rings", "2309": "vern", "2310": "youn", "2311": "bag", "2312": "une", "2313": "empt", "2314": "lands", "2315": "cour", "2316": "acro", "2317": "ika", "2318": "captain", "2319": "shadow", "2320": "acles", "2321": "wom", "2322": "amount", "2323": "mand", "2324": "cou", "2325": "smi", "2326": "oper", "2327": "revealing", "2328": "rokket", "2329": "lv", "2330": "nordic", "2331": "insecttype", "2332": "darklord", "2333": "hey!", "2334": "karate", "2335": "kev", "2336": "fuck", "2337": "ities", "2338": "akes", "2339": "imag", "2340": "cries", "2341": "ours", "2342": "ory", "2343": "yo", "2344": "often", "2345": "owner", "2346": "20", "2347": "flow", "2348": "drive", "2349": "saw", "2350": "soon", "2351": "danc", "2352": "sad", "2353": "burst", "2354": "quar", "2355": "past", "2356": "building", "2357": "customers", "2358": "rope", "2359": "fab", "2360": "fingers", "2361": "five", "2362": "phantas", "2363": "up!", "2364": "pride", "2365": "lunal", "2366": "wonderful", "2367": "ugly", "2368": "sanct", "2369": "ddd", "2370": "solfachord", "2371": "drytron", "2372": "eh", "2373": "squidward?", "2374": "drives", "2375": "interest", "2376": "moth", "2377": "however", "2378": "onomatopoeia", "2379": "ume", "2380": "cause", "2381": "zek", "2382": "sto", "2383": "ering", "2384": "luck", "2385": "golem", "2386": "quant", "2387": "saved", "2388": "hungry", "2389": "matter", "2390": "regi", "2391": "nerv", "2392": "purr", "2393": "stard", "2394": "4atk", "2395": "valk", "2396": "earthbound", "2397": "zefra", "2398": "therion", "2399": "oh!", "2400": "lunalight", "2401": "ursarc", "2402": "ursarctic", "2403": "yell", "2404": "fact", "2405": "sweet", "2406": "surpr", "2407": "dim", "2408": "steal", "2409": "towards", "2410": "poison", "2411": "lic", "2412": "gent", "2413": "fields", "2414": "hone", "2415": "came", "2416": "loud", "2417": "orn", "2418": "thief", "2419": "standing", "2420": "squirrel", "2421": "mad", "2422": "taking", "2423": "destru", "2424": "sitting", "2425": "plays", "2426": "valky", "2427": "thys", "2428": "quish", "2429": "fluffal", "2430": "odle", "2431": "exo", "2432": "exosister", "2433": "gunk", "2434": "gunkan", "2435": "ojama", "2436": "whos", "2437": "pushes", "2438": "chuck", "2439": "o!", "2440": "mark", "2441": "layer", "2442": "alien", "2443": "amer", "2444": "ract", "2445": "amor", "2446": "mythical", "2447": "laun", "2448": "import", "2449": "year", "2450": "oppos", "2451": "aint", "2452": "breath", "2453": "bes", "2454": "hell", "2455": "za", "2456": "machina", "2457": "stardust", "2458": "colink", "2459": "colinked", "2460": "elevel", "2461": "battlin", "2462": "dogmatika", "2463": "galaxyeyes", "2464": "tellarknight", "2465": "ha!", "2466": "tonight", "2467": "parents", "2468": "sandy!", "2469": "var", "2470": "species", "2471": "forest", "2472": "fle", "2473": "mid", "2474": "bon", "2475": "placed", "2476": "armor", "2477": "vious", "2478": "craw", "2479": "male", "2480": "suppos", "2481": "supposed", "2482": "fear", "2483": "dumb", "2484": "suc", "2485": "pine", "2486": "count", "2487": "boxer", "2488": "highest", "2489": "koz", "2490": "iling", "2491": "skip", "2492": "poke", "2493": "doubled", "2494": "stus", "2495": "1200", "2496": "valkyri", "2497": "sanctuary", "2498": "neph", "2499": "nephthys", "2500": "zombietype", "2501": "springans", "2502": "symphon", "2503": "now?", "2504": "ay!", "2505": "wher", "2506": "this!", "2507": "ready!", "2508": "myself", "2509": "appearance", "2510": "ages", "2511": "wings", "2512": "bran", "2513": "prey", "2514": "inspiration", "2515": "boun", "2516": "sharp", "2517": "eats", "2518": "moving", "2519": "bug", "2520": "called", "2521": "ital", "2522": "base", "2523": "yu", "2524": "dle", "2525": "cup", "2526": "ku", "2527": "cast", "2528": "wal", "2529": "brand", "2530": "boss", "2531": "beet", "2532": "happened", "2533": "12", "2534": "frost", "2535": "opping", "2536": "dolph", "2537": "screaming", "2538": "beat", "2539": "tex", "2540": "edle", "2541": "chained", "2542": "randomly", "2543": "naturia", "2544": "tomor", "2545": "tomorrow", "2546": "e!", "2547": "preda", "2548": "absolut", "2549": "absolutely", "2550": "weve", "2551": "chair", "2552": "greek", "2553": "gard", "2554": "respect", "2555": "ors", "2556": "miss", "2557": "bling", "2558": "lab", "2559": "sco", "2560": "probab", "2561": "probably", "2562": "shakes", "2563": "ends", "2564": "ili", "2565": "impres", "2566": "sque", "2567": "shir", "2568": "visas", "2569": "unchained", "2570": "magistus", "2571": "levelrank", "2572": "yours", "2573": "road", "2574": "symphonic", "2575": "genex", "2576": "relax", "2577": "rasp", "2578": "squarepants", "2579": "ow!", "2580": "offscreen", "2581": "moun", "2582": "ming", "2583": "anyone", "2584": "cla", "2585": "wood", "2586": "gas", "2587": "sac", "2588": "sense", "2589": "parti", "2590": "blast", "2591": "sequ", "2592": "collect", "2593": "ener", "2594": "sole", "2595": "quir", "2596": "travel", "2597": "experi", "2598": "ention", "2599": "ump", "2600": "important", "2601": "luster", "2602": "tongue", "2603": "children", "2604": "sus", "2605": "closer", "2606": "fortune", "2607": "incident", "2608": "code", "2609": "yral", "2610": "virtual", "2611": "bowl", "2612": "hia", "2613": "watching", "2614": "rix", "2615": "ride", "2616": "sits", "2617": "gaia", "2618": "wants", "2619": "doodle", "2620": "purrely", "2621": "metalfoes", "2622": "punk", "2623": "lib", "2624": "this?", "2625": "problem", "2626": "anno", "2627": "push", "2628": "snow", "2629": "atin", "2630": "gest", "2631": "bul", "2632": "drawing", "2633": "sne", "2634": "grou", "2635": "champ", "2636": "dig", "2637": "brain", "2638": "course", "2639": "predator", "2640": "restler", "2641": "snail", "2642": "vant", "2643": "on!", "2644": "rac", "2645": "space", "2646": "week", "2647": "register", "2648": "dolphin", "2649": "asses", "2650": "bir", "2651": "gun", "2652": "efic", "2653": "math", "2654": "chooses", "2655": "starfrost", "2656": "buster", "2657": "meet", "2658": "inflicted", "2659": "aquat", "2660": "aquatype", "2661": "quickplay", "2662": "positions", "2663": "spyral", "2664": "kozmo", "2665": "waiting", "2666": "heres", "2667": "magikey", "2668": "scarec", "2669": "zood", "2670": "zoodiac", "2671": "raspberry", "2672": "hears", "2673": "annoy", "2674": "ed!", "2675": "texas", "2676": "strong", "2677": "foss", "2678": "ani", "2679": "young", "2680": "resh", "2681": "charge", "2682": "cial", "2683": "mega", "2684": "cannon", "2685": "guardian", "2686": "days", "2687": "causing", "2688": "child", "2689": "clim", "2690": "bom", "2691": "urer", "2692": "dad", "2693": "deser", "2694": "fabled", "2695": "candy", "2696": "scal", "2697": "across", "2698": "size", "2699": "stu", "2700": "scary", "2701": "born", "2702": "stands", "2703": "chocol", "2704": "santa", "2705": "exceed", "2706": "beastwarriortype", "2707": "success", "2708": "gimmi", "2709": "doct", "2710": "romancer", "2711": "pineapple", "2712": "scareclaw", "2713": "subterror", "2714": "patrick?", "2715": "dollar", "2716": "boy!", "2717": "write", "2718": "bucket", "2719": "pokemon", "2720": "suf", "2721": "iev", "2722": "mountain", "2723": "bol", "2724": "fru", "2725": "ham", "2726": "lives", "2727": "tro", "2728": "knew", "2729": "covered", "2730": "swim", "2731": "rot", "2732": "sleeping", "2733": "dust", "2734": "explo", "2735": "enemy", "2736": "buzz", "2737": "blad", "2738": "coral", "2739": "ji", "2740": "rem", "2741": "strike", "2742": "ets", "2743": "charm", "2744": "tee", "2745": "restaur", "2746": "dodo", "2747": "corr", "2748": "infin", "2749": "robot", "2750": "emer", "2751": "sat", "2752": "tie", "2753": "mud", "2754": "birth", "2755": "gles", "2756": "saying", "2757": "mermail", "2758": "inzek", "2759": "inzektor", "2760": "gusto", "2761": "cip", "2762": "chosen", "2763": "crus", "2764": "gimmick", "2765": "dinow", "2766": "dinowrestler", "2767": "nept", "2768": "kash", "2769": "kashti", "2770": "kashtira", "2771": "libromancer", "2772": "laments", "2773": "boots", "2774": "you?", "2775": "lifts", "2776": "!!!!!!!!", "2777": "suffix", "2778": "named", "2779": "span", "2780": "tails", "2781": "deli", "2782": "evolved", "2783": "spin", "2784": "fort", "2785": "particular", "2786": "single", "2787": "flowers", "2788": "city", "2789": "future", "2790": "energy", "2791": "short", "2792": "ension", "2793": "electricity", "2794": "pair", "2795": "cher", "2796": "mit", "2797": "helmet", "2798": "complet", "2799": "pyro", "2800": "feeling", "2801": "agent", "2802": "sen", "2803": "nem", "2804": "rew", "2805": "doors", "2806": "beach", "2807": "sets", "2808": "deal", "2809": "iff", "2810": "swords", "2811": "unequip", "2812": "valkyrie", "2813": "mikan", "2814": "mikanko", "2815": "mode", "2816": "dinosaurtype", "2817": "twin", "2818": "mekk", "2819": "arklevel", "2820": "meklord", "2821": "keepers", "2822": "gagaga", "2823": "shiran", "2824": "predaplant", "2825": "tearlaments", "2826": "formula", "2827": "wormy", "2828": "feed", "2829": "liz", "2830": "dress", "2831": "olo", "2832": "smo", "2833": "seed", "2834": "ature", "2835": "legendary", "2836": "appeared", "2837": "human", "2838": "oid", "2839": "nect", "2840": "rocks", "2841": "ram", "2842": "slams", "2843": "keeps", "2844": "egg", "2845": "drop", "2846": "dge", "2847": "chest", "2848": "ength", "2849": "plain", "2850": "champion", "2851": "cam", "2852": "jade", "2853": "ris", "2854": "mil", "2855": "techni", "2856": "button", "2857": "experience", "2858": "restaurant", "2859": "ike", "2860": "opposite", "2861": "inks", "2862": "gad", "2863": "woman", "2864": "stre", "2865": "attention", "2866": "anyway", "2867": "needs", "2868": "boh", "2869": "requir", "2870": "books", "2871": "destruction", "2872": "floats", "2873": "wouldnt", "2874": "scared", "2875": "angri", "2876": "fanta", "2877": "gish", "2878": "gishki", "2879": "grill", "2880": "inferno", "2881": "laval", "2882": "gravekeepers", "2883": "crusad", "2884": "infernity", "2885": "tind", "2886": "tindangle", "2887": "out!", "2888": "shiranui", "2889": "malefic", "2890": "chuckles", "2891": "there!", "2892": "right!", "2893": "me?", "2894": "patchy", "2895": "incidental", "2896": "console", "2897": "referring", "2898": "poor", "2899": "others", "2900": "places", "2901": "battery", "2902": "cash", "2903": "fran", "2904": "sick", "2905": "meta", "2906": "inv", "2907": "realiz", "2908": "sti", "2909": "flavor", "2910": "asc", "2911": "worth", "2912": "heral", "2913": "melod", "2914": "adventurer", "2915": "that!", "2916": "dinomorp", "2917": "dinomorphia", "2918": "musket", "2919": "arr", "2920": "street", "2921": "aye", "2922": "anymore", "2923": "boring", "2924": "kevin", "2925": "ism", "2926": "spanish", "2927": "ently", "2928": "giving", "2929": "ninj", "2930": "charac", "2931": "arti", "2932": "uni", "2933": "weak", "2934": "aring", "2935": "tsu", "2936": "init", "2937": "pot", "2938": "saf", "2939": "range", "2940": "chall", "2941": "tough", "2942": "creatures", "2943": "karak", "2944": "hood", "2945": "feather", "2946": "sever", "2947": "itsu", "2948": "mention", "2949": "orm", "2950": "increas", "2951": "excit", "2952": "tea", "2953": "song", "2954": "wick", "2955": "shark", "2956": "ane", "2957": "answ", "2958": "none", "2959": "rage", "2960": "noise", "2961": "ruin", "2962": "repe", "2963": "chir", "2964": "shake", "2965": "necro", "2966": "decrease", "2967": "gadget", "2968": "contract", "2969": "written", "2970": "crusadia", "2971": "kraw", "2972": "krawler", "2973": "hug", "2974": "icejade", "2975": "vanquish", "2976": "great!", "2977": "larry", "2978": "dragons", "2979": "stat", "2980": "slee", "2981": "uma", "2982": "oce", "2983": "nel", "2984": "third", "2985": "chim", "2986": "valley", "2987": "multiple", "2988": "pref", "2989": "gaz", "2990": "jack", "2991": "series", "2992": "mortal", "2993": "flames", "2994": "chase", "2995": "pin", "2996": "speak", "2997": "practi", "2998": "pil", "2999": "fairytype", "3000": "shoo", "3001": "lil", "3002": "shin", "3003": "skills", "3004": "finished", "3005": "thro", "3006": "technique", "3007": "applied", "3008": "fess", "3009": "singing", "3010": "letter", "3011": "memor", "3012": "seven", "3013": "frog", "3014": "terrible", "3015": "oy", "3016": "angrily", "3017": "melodious", "3018": "branded", "3019": "kuriboh", "3020": "silent", "3021": "appliancer", "3022": "shuffled", "3023": "orcust", "3024": "mekkknight", "3025": "time!", "3026": "heroic", "3027": "atest", "3028": "nervously", "3029": "walkie", "3030": "walkietalk", "3031": "aaaaaaaa", "3032": "eedle", "3033": "hide", "3034": "princess", "3035": "gave", "3036": "brea", "3037": "carry", "3038": "wra", "3039": "magnet", "3040": "wand", "3041": "fier", "3042": "stage", "3043": "event", "3044": "mam", "3045": "teeth", "3046": "lus", "3047": "volcan", "3048": "fig", "3049": "quickly", "3050": "utes", "3051": "fossil", "3052": "adium", "3053": "linked", "3054": "gam", "3055": "jam", "3056": "rocktype", "3057": "mobi", "3058": "fantastic", "3059": "adv", "3060": "anywhere", "3061": "edarklevel", "3062": "signal", "3063": "finger", "3064": "infernoid", "3065": "runick", "3066": "mathmech", "3067": "karakuri", "3068": "neptune", "3069": "greatest", "3070": "swordsoul", "3071": "pirate", "3072": "peeks", "3073": "office", "3074": "nah", "3075": "chec", "3076": "ender", "3077": "quiet", "3078": "enter", "3079": "sting", "3080": "jur", "3081": "ank", "3082": "arc", "3083": "visible", "3084": "generation", "3085": "claws", "3086": "suit", "3087": "fighting", "3088": "connect", "3089": "french", "3090": "stars", "3091": "ending", "3092": "whis", "3093": "dia", "3094": "cel", "3095": "butter", "3096": "rocket", "3097": "nal", "3098": "bite", "3099": "challen", "3100": "een", "3101": "share", "3102": "lie", "3103": "seas", "3104": "incred", "3105": "tu", "3106": "reads", "3107": "month", "3108": "crit", "3109": "surprise", "3110": "darkness", "3111": "famili", "3112": "fif", "3113": "park", "3114": "pieces", "3115": "nth", "3116": "father", "3117": "played", "3118": "sequence", "3119": "removing", "3120": "attributelevel", "3121": "qli", "3122": "forb", "3123": "rule", "3124": "deskbot", "3125": "doctor", "3126": "jok", "3127": "here?", "3128": "bike", "3129": "s?", "3130": "hoor", "3131": "wheres", "3132": "crazy", "3133": "do?", "3134": "driving", "3135": "cheese", "3136": "award", "3137": "sigh", "3138": "walkietalkie", "3139": "yall", "3140": "meh", "3141": "review", "3142": "lier", "3143": "capa", "3144": "hours", "3145": "ific", "3146": "vies", "3147": "aken", "3148": "fit", "3149": "ake", "3150": "join", "3151": "selves", "3152": "faster", "3153": "rik", "3154": "created", "3155": "shield", "3156": "crossing", "3157": "horse", "3158": "doom", "3159": "lid", "3160": "bull", "3161": "specially", "3162": "bbing", "3163": "wake", "3164": "ranks", "3165": "scri", "3166": "chal", "3167": "busy", "3168": "a!", "3169": "covers", "3170": "wakes", "3171": "chocolate", "3172": "acounter", "3173": "additional", "3174": "ister", "3175": "jac", "3176": "kinda", "3177": "isher", "3178": "2atk", "3179": "paying", "3180": "briga", "3181": "brigade", "3182": "appo", "3183": "windup", "3184": "havent", "3185": "now!", "3186": "nope", "3187": "krab!", "3188": "pickles", "3189": "h!", "3190": "garys", "3191": "grandma", "3192": "closeup", "3193": "interesting", "3194": "hob", "3195": "ties", "3196": "latin", "3197": "hop", "3198": "capable", "3199": "histor", "3200": "crim", "3201": "habit", "3202": "blood", "3203": "tel", "3204": "descri", "3205": "hurry", "3206": "storm", "3207": "match", "3208": "beginning", "3209": "ption", "3210": "excell", "3211": "1800", "3212": "engl", "3213": "chick", "3214": "dor", "3215": "aster", "3216": "ana", "3217": "confus", "3218": "emperor", "3219": "vision", "3220": "quite", "3221": "possessed", "3222": "stuck", "3223": "tentacles", "3224": "bill", "3225": "purple", "3226": "pocket", "3227": "spiritual", "3228": "whate", "3229": "graphics", "3230": "hides", "3231": "tired", "3232": "mobile", "3233": "tory", "3234": "wicked", "3235": "typeattributelevel", "3236": "typeattributelevelatkdef", "3237": "labry", "3238": "labrynth", "3239": "ius", "3240": "rips", "3241": "tribrigade", "3242": "discards", "3243": "forbidden", "3244": "couple", "3245": "crystron", "3246": "forever", "3247": "trapt", "3248": "vernus", "3249": "vernusyl", "3250": "vernusylph", "3251": "help!", "3252": "forgot", "3253": "aww", "3254": "shoe", "3255": "giggles", "3256": "orts", "3257": "jellyspot", "3258": "animals", "3259": "chine", "3260": "chinese", "3261": "various", "3262": "angu", "3263": "cas", "3264": "mystery", "3265": "fresh", "3266": "expres", "3267": "ments", "3268": "tive", "3269": "dies", "3270": "icy", "3271": "lik", "3272": "approach", "3273": "vill", "3274": "toward", "3275": "cheer", "3276": "fierce", "3277": "forms", "3278": "group", "3279": "wns", "3280": "yi", "3281": "heat", "3282": "nut", "3283": "bat", "3284": "leep", "3285": "previous", "3286": "extrem", "3287": "thri", "3288": "ately", "3289": "usually", "3290": "pengu", "3291": "dar", "3292": "venom", "3293": "snake", "3294": "eter", "3295": "garb", "3296": "igh", "3297": "numer", "3298": "chance", "3299": "command", "3300": "wol", "3301": "whatever", "3302": "talent", "3303": "crashes", "3304": "enly", "3305": "started", "3306": "weird", "3307": "clu", "3308": "writing", "3309": "3atk", "3310": "pies", "3311": "adjac", "3312": "adjacent", "3313": "frame", "3314": "amorpha", "3315": "amorphage", "3316": "servant", "3317": "nd", "3318": "metaphys", "3319": "noneffect", "3320": "rooper", "3321": "cipher", "3322": "longer", "3323": "shuffling", "3324": "gift", "3325": "suship", "3326": "annoyed", "3327": "knocks", "3328": "away!", "3329": "hate", "3330": "cons", "3331": "feat", "3332": "produ", "3333": "sail", "3334": "plate", "3335": "certain", "3336": "tub", "3337": "powers", "3338": "knot", "3339": "tures", "3340": "ively", "3341": "strength", "3342": "excellent", "3343": "thous", "3344": "thousand", "3345": "tit", "3346": "pup", "3347": "ife", "3348": "draco", "3349": "dan", "3350": "raid", "3351": "lian", "3352": "mend", "3353": "lies", "3354": "mart", "3355": "especially", "3356": "loves", "3357": "divine", "3358": "shr", "3359": "spark", "3360": "minute", "3361": "sticks", "3362": "las", "3363": "windlevel", "3364": "2nd", "3365": "rankup", "3366": "rankupmagic", "3367": "beetrooper", "3368": "darklevel", "3369": "immortal", "3370": "waterlevel", "3371": "cyberdark", "3372": "loser", "3373": "dinomist", "3374": "dracos", "3375": "dracoslayer", "3376": "increased", "3377": "yelling", "3378": "sniff", "3379": "krabs?", "3380": "hello?", "3381": "chum", "3382": "business", "3383": "quarter", "3384": "wallet", "3385": "shaped", "3386": "ara", "3387": "gather", "3388": "surface", "3389": "dex", "3390": "lli", "3391": "kon", "3392": "tions", "3393": "neck", "3394": "fill", "3395": "trust", "3396": "poll", "3397": "dump", "3398": "heal", "3399": "reason", "3400": "meat", "3401": "although", "3402": "tos", "3403": "stom", "3404": "asleep", "3405": "caught", "3406": "penguin", "3407": "seal", "3408": "subst", "3409": "devel", "3410": "horrible", "3411": "silver", "3412": "woo", "3413": "fancy", "3414": "11", "3415": "cles", "3416": "harder", "3417": "zen", "3418": "garbage", "3419": "vy", "3420": "haw", "3421": "stret", "3422": "sight", "3423": "noises", "3424": "lers", "3425": "extremely", "3426": "gray", "3427": "pack", "3428": "wasp", "3429": "telling", "3430": "note", "3431": "oyster", "3432": "infernoble", "3433": "hall", "3434": "ninjitsu", "3435": "familiar", "3436": "junk", "3437": "rikka", "3438": "hiy", "3439": "igknight", "3440": "expect", "3441": "promise", "3442": "moment", "3443": "traptrix", "3444": "wow!", "3445": "sighs", "3446": "day!", "3447": "bottle", "3448": "jellyfishing", "3449": "consider", "3450": "earlier", "3451": "kings", "3452": "upon", "3453": "straight", "3454": "rout", "3455": "spider", "3456": "icious", "3457": "ws", "3458": "jumping", "3459": "despite", "3460": "spend", "3461": "ky", "3462": "ingly", "3463": "blade", "3464": "tiny", "3465": "ocean", "3466": "ching", "3467": "accel", "3468": "item", "3469": "zed", "3470": "region", "3471": "cost", "3472": "mechan", "3473": "look!", "3474": "cave", "3475": "reci", "3476": "organ", "3477": "arri", "3478": "flash", "3479": "raction", "3480": "maj", "3481": "gle", "3482": "sue", "3483": "lightning", "3484": "reaches", "3485": "tot", "3486": "ative", "3487": "flam", "3488": "octop", "3489": "poli", "3490": "infl", "3491": "pillow", "3492": "several", "3493": "19", "3494": "fog", "3495": "float", "3496": "cape", "3497": "belong", "3498": "gum", "3499": "enix", "3500": "spits", "3501": "fore", "3502": "cli", "3503": "camera", "3504": "safe", "3505": "bies", "3506": "squeak", "3507": "aces", "3508": "stant", "3509": "chirp", "3510": "block", "3511": "cookie", "3512": "clothes", "3513": "nou", "3514": "batteryman", "3515": "typedarklevel", "3516": "2500", "3517": "swordsman", "3518": "save", "3519": "nobody", "3520": "definit", "3521": "forward", "3522": "disappo", "3523": "melff", "3524": "megal", "3525": "zw", "3526": "amid", "3527": "gh!", "3528": "one!", "3529": "goodbye", "3530": "underwear", "3531": "dear", "3532": "gary?", "3533": "excuse", "3534": "checks", "3535": "lege", "3536": "married", "3537": "gameplay", "3538": "ache", "3539": "lizard", "3540": "rite", "3541": "aval", "3542": "enty", "3543": "character", "3544": "kit", "3545": "artist", "3546": "ski", "3547": "dancing", "3548": "pes", "3549": "represent", "3550": "completely", "3551": "disgust", "3552": "english", "3553": "hon", "3554": "stem", "3555": "natural", "3556": "usion", "3557": "classic", "3558": "slowly", "3559": "hol", "3560": "version", "3561": "sock", "3562": "dent", "3563": "pile", "3564": "eventually", "3565": "customer", "3566": "loy", "3567": "tile", "3568": "minutes", "3569": "ade", "3570": "glow", "3571": "kicks", "3572": "normally", "3573": "drinks", "3574": "rainbow", "3575": "carni", "3576": "sell", "3577": "painting", "3578": "ager", "3579": "sacred", "3580": "question", "3581": "really?", "3582": "necrovalley", "3583": "talker", "3584": "remaining", "3585": "amaz", "3586": "myst", "3587": "nouvel", "3588": "nouvelles", "3589": "rd", "3590": "itor", "3591": "reson", "3592": "impcant", "3593": "impcantation", "3594": "sink", "3595": "honest", "3596": "rack", "3597": "windwitch", "3598": "megalith", "3599": "medium", "3600": "unif", "3601": "again!", "3602": "bunch", "3603": "gee", "3604": "speaking", "3605": "hiyah!", "3606": "ffff", "3607": "gram", "3608": "mytholo", "3609": "anime", "3610": "dun", "3611": "gor", "3612": "ults", "3613": "toy", "3614": "thus", "3615": "ode", "3616": "movie", "3617": "additionally", "3618": "ican", "3619": "haun", "3620": "ago", "3621": "surround", "3622": "borrow", "3623": "sudd", "3624": "itive", "3625": "snaps", "3626": "absor", "3627": "confused", "3628": "weight", "3629": "anting", "3630": "waves", "3631": "crew", "3632": "knock", "3633": "bass", "3634": "cow", "3635": "phoenix", "3636": "shirt", "3637": "tiger", "3638": "serious", "3639": "wolf", "3640": "garden", "3641": "continue", "3642": "wash", "3643": "memory", "3644": "zoom", "3645": "pets", "3646": "trash", "3647": "script", "3648": "rul", "3649": "xsaber", "3650": "thinks", "3651": "cit", "3652": "returning", "3653": "nemler", "3654": "definitely", "3655": "melffy", "3656": "exer", "3657": "stair", "3658": "triamid", "3659": "dressed", "3660": "cmon", "3661": "hmmm", "3662": "smiles", "3663": "crawls", "3664": "yes!", "3665": "sauce", "3666": "whist", "3667": "glasses", "3668": "jellyspotters", "3669": "college", "3670": "popular", "3671": "rum", "3672": "ari", "3673": "evolutionary", "3674": "given", "3675": "imit", "3676": "believ", "3677": "cats", "3678": "ae", "3679": "steel", "3680": "conce", "3681": "official", "3682": "ized", "3683": "wasnt", "3684": "shop", "3685": "striking", "3686": "learned", "3687": "ned", "3688": "ori", "3689": "antic", "3690": "fighter", "3691": "ashes", "3692": "50", "3693": "crown", "3694": "shoot", "3695": "cute", "3696": "store", "3697": "trou", "3698": "exist", "3699": "particularly", "3700": "nature", "3701": "develop", "3702": "famous", "3703": "enna", "3704": "bil", "3705": "thin", "3706": "ohn", "3707": "lusc", "3708": "sorcer", "3709": "strugg", "3710": "mann", "3711": "requires", "3712": "scul", "3713": "invisible", "3714": "date", "3715": "arent", "3716": "zaps", "3717": "amed", "3718": "dangerous", "3719": "forth", "3720": "noti", "3721": "acounters", "3722": "curtain", "3723": "anced", "3724": "adic", "3725": "amazement", "3726": "mystical", "3727": "lyri", "3728": "discarding", "3729": "chalice", "3730": "3rd", "3731": "volcanic", "3732": "blader", "3733": "gogogo", "3734": "evoltile", "3735": "happens", "3736": "country", "3737": "psyframe", "3738": "cope", "3739": "ooh", "3740": "hooray!", "3741": "steps", "3742": "quot", "3743": "mmm", "3744": "stop!", "3745": "pean", "3746": "him!", "3747": "cookies", "3748": "doodlebob", "3749": "thum", "3750": "grass", "3751": "alpha", "3752": "evolve", "3753": "trainers", "3754": "ella", "3755": "partner", "3756": "hidden", "3757": "pok\u00e9dex", "3758": "epis", "3759": "visit", "3760": "tin", "3761": "snee", "3762": "faces", "3763": "create", "3764": "als", "3765": "wer", "3766": "coon", "3767": "starting", "3768": "rex", "3769": "kel", "3770": "aku", "3771": "pill", "3772": "reflect", "3773": "fired", "3774": "state", "3775": "liter", "3776": "io", "3777": "apri", "3778": "april", "3779": "scr", "3780": "spiral", "3781": "allows", "3782": "mill", "3783": "beard", "3784": "load", "3785": "smile", "3786": "aes", "3787": "dev", "3788": "carnival", "3789": "syl", "3790": "ior", "3791": "stink", "3792": "replace", "3793": "vide", "3794": "proud", "3795": "string", "3796": "shari", "3797": "worse", "3798": "teacher", "3799": "ightlevel", "3800": "ogdo", "3801": "!!!", "3802": "eldli", "3803": "chup", "3804": "dice", "3805": "nemleria", "3806": "dreaming", "3807": "alarm", "3808": "lucky", "3809": "lyrilusc", "3810": "couldnt", "3811": "exerc", "3812": "totally", "3813": "right?", "3814": "boating", "3815": "neigh", "3816": "cheers", "3817": "john", "3818": "eedleeedle", "3819": "multiplayer", "3820": "fox", "3821": "zu", "3822": "skin", "3823": "ids", "3824": "ified", "3825": "area", "3826": "tool", "3827": "horror", "3828": "fil", "3829": "rabbit", "3830": "hunting", "3831": "arom", "3832": "thy", "3833": "map", "3834": "chas", "3835": "wishes", "3836": "belly", "3837": "bee", "3838": "build", "3839": "magaz", "3840": "elli", "3841": "ren", "3842": "intro", "3843": "putting", "3844": "mic", "3845": "30", "3846": "octopus", "3847": "contain", "3848": "trouble", "3849": "cere", "3850": "dwell", "3851": "dogs", "3852": "ral", "3853": "elike", "3854": "snor", "3855": "stun", "3856": "personal", "3857": "wide", "3858": "riding", "3859": "paint", "3860": "holes", "3861": "scales", "3862": "ann", "3863": "itar", "3864": "emp", "3865": "log", "3866": "bber", "3867": "offer", "3868": "arth", "3869": "novel", "3870": "gus", "3871": "eless", "3872": "empty", "3873": "castle", "3874": "limit", "3875": "breaking", "3876": "hearts", "3877": "burns", "3878": "adam", "3879": "reborn", "3880": "prison", "3881": "ogdoadic", "3882": "jinzo", "3883": "adds", "3884": "starfish", "3885": "hisher", "3886": "decks", "3887": "thundertype", "3888": "afraid", "3889": "brotherhood", "3890": "resonator", "3891": "cloudian", "3892": "2100", "3893": "license", "3894": "winner", "3895": "home!", "3896": "driver", "3897": "simor", "3898": "simorgh", "3899": "geargi", "3900": "dinner", "3901": "shall", "3902": "infinit", "3903": "infinitrack", "3904": "knows", "3905": "shes", "3906": "marble", "3907": "stairs", "3908": "is!", "3909": "hus", "3910": "book!", "3911": "sobbing", "3912": "uniform", "3913": "butt", "3914": "more!", "3915": "enters", "3916": "hobbies", "3917": "mustache", "3918": "lap", "3919": "patter", "3920": "wy", "3921": "sug", "3922": "prehistor", "3923": "prehistoric", "3924": "brilli", "3925": "squee", "3926": "cake", "3927": "monkey", "3928": "drum", "3929": "movies", "3930": "mim", "3931": "bodies", "3932": "clay", "3933": "wig", "3934": "talks", "3935": "features", "3936": "artif", "3937": "ultra", "3938": "ette", "3939": "greed", "3940": "attempt", "3941": "massive", "3942": "leader", "3943": "audi", "3944": "blaze", "3945": "beha", "3946": "behavi", "3947": "wave", "3948": "isk", "3949": "viol", "3950": "ada", "3951": "training", "3952": "hangs", "3953": "floating", "3954": "oran", "3955": "shiny", "3956": "smaller", "3957": "secre", "3958": "nar", "3959": "ragon", "3960": "leaf", "3961": "antenna", "3962": "mentioned", "3963": "circle", "3964": "pole", "3965": "weap", "3966": "strange", "3967": "fishing", "3968": "consum", "3969": "grows", "3970": "ised", "3971": "reptilian", "3972": "phantasm", "3973": "tray", "3974": "hammer", "3975": "hipp", "3976": "answer", "3977": "way!", "3978": "smells", "3979": "mate", "3980": "milk", "3981": "sandwi", "3982": "masked", "3983": "keys", "3984": "catches", "3985": "nick", "3986": "royal", "3987": "engine", "3988": "path", "3989": "hanging", "3990": "climb", "3991": "ers!", "3992": "loudly", "3993": "99", "3994": "2400", "3995": "advanced", "3996": "corn", "3997": "redu", "3998": "attraction", "3999": "searing", "4000": "ravi", "4001": "battlewasp", "4002": "chimera", "4003": "ruler", "4004": "acceler", "4005": "option", "4006": "tuners", "4007": "dude", "4008": "kisik", "4009": "kisikil", "4010": "lilla", "4011": "spright", "4012": "hier", "4013": "club", "4014": "husband", "4015": "besides", "4016": "ahh", "4017": "neighbor", "4018": "jokes", "4019": "alalalal", "4020": "everywhere", "4021": "yee", "4022": "bathroom", "4023": "leans", "4024": "essay", "4025": "sports", "4026": "fucking", "4027": "perha", "4028": "perhaps", "4029": "bli", "4030": "punch", "4031": "laby", "4032": "rin", "4033": "langu", "4034": "trees", "4035": "tooth", "4036": "suggest", "4037": "temper", "4038": "brilliant", "4039": "unic", "4040": "clif", "4041": "gling", "4042": "depic", "4043": "episode", "4044": "likely", "4045": "ended", "4046": "sla", "4047": "ease", "4048": "eag", "4049": "culture", "4050": "careful", "4051": "brought", "4052": "ency", "4053": "nation", "4054": "introdu", "4055": "mut", "4056": "vicious", "4057": "ido", "4058": "active", "4059": "challenge", "4060": "intense", "4061": "ify", "4062": "coff", "4063": "nine", "4064": "detached", "4065": "bum", "4066": "drawn", "4067": "needed", "4068": "victim", "4069": "ney", "4070": "history", "4071": "incredible", "4072": "sof", "4073": "corrup", "4074": "lift", "4075": "further", "4076": "spl", "4077": "too!", "4078": "escape", "4079": "tried", "4080": "monarch", "4081": "photo", "4082": "proper", "4083": "ias", "4084": "fat", "4085": "zero", "4086": "kiss", "4087": "mum", "4088": "arian", "4089": "muff", "4090": "sculp", "4091": "truck", "4092": "barrel", "4093": "profess", "4094": "cooking", "4095": "poo", "4096": "suddenly", "4097": "prove", "4098": "spa", "4099": "notice", "4100": "link3", "4101": "adamanc", "4102": "adamanci", "4103": "adamancipat", "4104": "adamancipator", "4105": "sylvan", "4106": "aesir", "4107": "atlant", "4108": "stream", "4109": "paid", "4110": "background", "4111": "recipe", "4112": "borrel", "4113": "substit", "4114": "1000def", "4115": "accelerator", "4116": "dimension", "4117": "ishment", "4118": "glove", "4119": "elementsaber", "4120": "instant", "4121": "hieratic", "4122": "worst", "4123": "aho", "4124": "mannadium", "4125": "grab", "4126": "cept", "4127": "lips", "4128": "kidding", "4129": "doing?", "4130": "ripped", "4131": "see?", "4132": "oooo", "4133": "silly", "4134": "fred", "4135": "hugs", "4136": "treed", "4137": "treedome", "4138": "us!", "4139": "somebody", "4140": "tick", "4141": "hurt", "4142": "in!", "4143": "exercise", "4144": "boatmobile", "4145": "scare", "4146": "meen", "4147": "achi", "4148": "crack", "4149": "branch", "4150": "crimson", "4151": "absolute", "4152": "deliver", "4153": "mol", "4154": "slu", "4155": "terr", "4156": "ita", "4157": "ably", "4158": "cliff", "4159": "concept", "4160": "general", "4161": "turtle", "4162": "themselves", "4163": "frust", "4164": "sucks", "4165": "rides", "4166": "direction", "4167": "channel", "4168": "italian", "4169": "wis", "4170": "gym", "4171": "weed", "4172": "phy", "4173": "spi", "4174": "plas", "4175": "cus", "4176": "increases", "4177": "letters", "4178": "bomb", "4179": "crab", "4180": "ander", "4181": "system", "4182": "antis", "4183": "honey", "4184": "scorp", "4185": "nu", "4186": "ished", "4187": "shoots", "4188": "news", "4189": "pump", "4190": "correct", "4191": "scratch", "4192": "strum", "4193": "imagin", "4194": "ata", "4195": "youd", "4196": "flor", "4197": "accord", "4198": "according", "4199": "ched", "4200": "souls", "4201": "lion", "4202": "gol", "4203": "cartoon", "4204": "wil", "4205": "windows", "4206": "pig", "4207": "blowing", "4208": "dread", "4209": "showing", "4210": "brings", "4211": "backwards", "4212": "pit", "4213": "artifact", "4214": "scra", "4215": "butterfly", "4216": "curse", "4217": "hyper", "4218": "heraldic", "4219": "4000", "4220": "lightlevel", "4221": "despair", "4222": "jet", "4223": "hamon", "4224": "wyrmtype", "4225": "graveyards", "4226": "cynet", "4227": "pitch", "4228": "message", "4229": "dreams", "4230": "satell", "4231": "disappoint", "4232": "mission", "4233": "maje", "4234": "majespect", "4235": "majespecter", "4236": "middle", "4237": "relaxing", "4238": "vyl", "4239": "vylon", "4240": "shouldnt", "4241": "ohh", "4242": "aha!", "4243": "happily", "4244": "penny", "4245": "feels", "4246": "somewhere", "4247": "ssss", "4248": "girls", "4249": "uhuh", "4250": "house!", "4251": "pants!", "4252": "basket", "4253": "yy", "4254": "impressed", "4255": "maniac", "4256": "sandwich", "4257": "sneezes", "4258": "muh", "4259": "az", "4260": "spoon", "4261": "queens", "4262": "odo", "4263": "flu", "4264": "smoke", "4265": "mystic", "4266": "18", "4267": "fel", "4268": "object", "4269": "ura", "4270": "mysterious", "4271": "works", "4272": "aru", "4273": "signature", "4274": "expression", "4275": "commonly", "4276": "gul", "4277": "watt", "4278": "nets", "4279": "kne", "4280": "within", "4281": "icle", "4282": "turned", "4283": "member", "4284": "awaken", "4285": "resembling", "4286": "beasts", "4287": "winter", "4288": "pollen", "4289": "ordin", "4290": "prefer", "4291": "winds", "4292": "eagle", "4293": "magazine", "4294": "intelli", "4295": "clus", "4296": "ala", "4297": "tt", "4298": "loved", "4299": "alive", "4300": "apart", "4301": "physical", "4302": "ply", "4303": "shock", "4304": "growing", "4305": "sunlight", "4306": "bark", "4307": "meaning", "4308": "deer", "4309": "ben", "4310": "pattern", "4311": "brown", "4312": "instrum", "4313": "demon", "4314": "sides", "4315": "dee", "4316": "process", "4317": "rather", "4318": "prec", "4319": "anga", "4320": "straw", "4321": "glar", "4322": "crush", "4323": "forehead", "4324": "mustard", "4325": "throat", "4326": "tem", "4327": "seat", "4328": "calm", "4329": "pipe", "4330": "broken", "4331": "seconds", "4332": "odd", "4333": "sage", "4334": "aceful", "4335": "teen", "4336": "recog", "4337": "shocked", "4338": "birthday", "4339": "boot", "4340": "conch", "4341": "rup", "4342": "eyed", "4343": "zor", "4344": "lops", "4345": "exam", "4346": "rated", "4347": "victory", "4348": "farm", "4349": "chases", "4350": "gained", "4351": "jacks", "4352": "uria", "4353": "phantasms", "4354": "charmer", "4355": "steam", "4356": "tamer", "4357": "unused", "4358": "byst", "4359": "bystial", "4360": "brush", "4361": "performage", "4362": "lowest", "4363": "slime", "4364": "vell", "4365": "flips", "4366": "successfully", "4367": "dododo", "4368": "steels", "4369": "steelswarm", "4370": "mistake", "4371": "mop", "4372": "avalon", "4373": "reptilianne", "4374": "umm", "4375": "starry", "4376": "accept", "4377": "ooh!", "4378": "slides", "4379": "shut", "4380": "zooms", "4381": "puff!", "4382": "what?!", "4383": "daught", "4384": "sniffs", "4385": "soap", "4386": "ketchup", "4387": "citiz", "4388": "idea!", "4389": "joke", "4390": "tape", "4391": "sandy?", "4392": "alone!", "4393": "mythology", "4394": "rever", "4395": "delicious", "4396": "rat", "4397": "fruit", "4398": "alol", "4399": "nuts", "4400": "ert", "4401": "aged", "4402": "causes", "4403": "ano", "4404": "post", "4405": "jan", "4406": "pod", "4407": "umbr", "4408": "taste", "4409": "ote", "4410": "dances", "4411": "colors", "4412": "ami", "4413": "barra", "4414": "includes", "4415": "gres", "4416": "issue", "4417": "bright", "4418": "rhy", "4419": "berg", "4420": "exclus", "4421": "ail", "4422": "ince", "4423": "port", "4424": "dom", "4425": "cleaning", "4426": "lett", "4427": "behavior", "4428": "phant", "4429": "split", "4430": "pose", "4431": "skel", "4432": "skelet", "4433": "aks", "4434": "parts", "4435": "bears", "4436": "excited", "4437": "ishes", "4438": "practice", "4439": "protection", "4440": "dome", "4441": "meant", "4442": "female", "4443": "shining", "4444": "tall", "4445": "frozen", "4446": "ants", "4447": "solid", "4448": "tight", "4449": "lying", "4450": "aver", "4451": "fang", "4452": "15", "4453": "shaking", "4454": "emplo", "4455": "mete", "4456": "lamp", "4457": "nightmare", "4458": "sculpture", "4459": "electrom", "4460": "electromag", "4461": "cone", "4462": "gentle", "4463": "ddle", "4464": "opped", "4465": "bushi", "4466": "accident", "4467": "exchange", "4468": "urm", "4469": "tad", "4470": "behe", "4471": "nonlink", "4472": "sorcerer", "4473": "thrill", "4474": "army", "4475": "wiz", "4476": "neme", "4477": "nemeses", "4478": "raviel", "4479": "zarc", "4480": "sheep", "4481": "substitute", "4482": "fishtype", "4483": "plane", "4484": "squeezes", "4485": "good!", "4486": "track", "4487": "mokey", "4488": "wife", "4489": "sunavalon", "4490": "fasc", "4491": "teles", "4492": "telescope", "4493": "ever!", "4494": "deserve", "4495": "audience", "4496": "hoo!", "4497": "writes", "4498": "daughter", "4499": "lolli", "4500": "police", "4501": "struggles", "4502": "money!", "4503": "know!", "4504": "squaw", "4505": "entertain", "4506": "lary", "4507": "edl", "4508": "edlele", "4509": "recom", "4510": "!!!!!!!!!!!!!!!!", "4511": "shares", "4512": "asso", "4513": "sely", "4514": "mountains", "4515": "nowhere", "4516": "territ", "4517": "mostly", "4518": "umes", "4519": "gur", "4520": "amax", "4521": "oil", "4522": "birds", "4523": "bam", "4524": "bamboo", "4525": "los", "4526": "eo", "4527": "mix", "4528": "doof", "4529": "sens", "4530": "loc", "4531": "diamon", "4532": "pik", "4533": "pikach", "4534": "closed", "4535": "poisonous", "4536": "ida", "4537": "bursts", "4538": "hund", "4539": "hundred", "4540": "hoo", "4541": "39", "4542": "explain", "4543": "owned", "4544": "origin", "4545": "kab", "4546": "symbol", "4547": "noc", "4548": "death", "4549": "whale", "4550": "needle", "4551": "likes", "4552": "company", "4553": "rece", "4554": "tip", "4555": "orange", "4556": "lock", "4557": "predic", "4558": "tured", "4559": "record", "4560": "fet", "4561": "jour", "4562": "originally", "4563": "highly", "4564": "hydro", "4565": "eel", "4566": "17", "4567": "iss", "4568": "cheeks", "4569": "rubber", "4570": "project", "4571": "fal", "4572": "spray", "4573": "venge", "4574": "nest", "4575": "illusion", "4576": "adult", "4577": "excitement", "4578": "brothers", "4579": "bunny", "4580": "ads", "4581": "deadly", "4582": "sci", "4583": "crime", "4584": "oked", "4585": "rei", "4586": "ruel", "4587": "rolling", "4588": "marsh", "4589": "elle", "4590": "throwing", "4591": "loyal", "4592": "nes", "4593": "headed", "4594": "pictures", "4595": "justice", "4596": "ogre", "4597": "eyel", "4598": "belt", "4599": "lick", "4600": "figure", "4601": "dents", "4602": "results", "4603": "plus", "4604": "micro", "4605": "ision", "4606": "prevent", "4607": "rays", "4608": "bouncing", "4609": "pare", "4610": "claus", "4611": "behemoth", "4612": "despia", "4613": "ghoti", "4614": "oll", "4615": "ples", "4616": "wield", "4617": "tosses", "4618": "eldlich", "4619": "fiendtypedarklevel", "4620": "vice", "4621": "tenyi", "4622": "rip", "4623": "guardragon", "4624": "jer", "4625": "jurrac", "4626": "knightmare", "4627": "planet", "4628": "lou", "4629": "numeron", "4630": "satellarknight", "4631": "quantum", "4632": "socks", "4633": "arrgh", "4634": "till", "4635": "imagines", "4636": "dollars", "4637": "tartar", "4638": "uho", "4639": "worried", "4640": "enough!", "4641": "whacks", "4642": "howdy", "4643": "licks", "4644": "comput", "4645": "fun!", "4646": "okay!", "4647": "evilly", "4648": "go?", "4649": "growls", "4650": "meep", "4651": "er!", "4652": "asking", "4653": "remin", "4654": "reminis", "4655": "reminiscent", "4656": "image", "4657": "lived", "4658": "period", "4659": "arcan", "4660": "revi", "4661": "ances", "4662": "grown", "4663": "pom", "4664": "manip", "4665": "manipul", "4666": "ym", "4667": "comfor", "4668": "wed", "4669": "ured", "4670": "balls", "4671": "ahead", "4672": "comm", "4673": "nearby", "4674": "asked", "4675": "fortress", "4676": "tradition", "4677": "jun", "4678": "evolves", "4679": "described", "4680": "aroma", "4681": "tank", "4682": "bidoof", "4683": "finds", "4684": "fights", "4685": "facial", "4686": "american", "4687": "secur", "4688": "diet", "4689": "distur", "4690": "shine", "4691": "prepar", "4692": "below", "4693": "freeze", "4694": "sex", "4695": "magma", "4696": "shri", "4697": "bush", "4698": "vul", "4699": "selene", "4700": "rate", "4701": "abilities", "4702": "stomach", "4703": "cele", "4704": "native", "4705": "sapp", "4706": "fail", "4707": "lon", "4708": "remind", "4709": "compar", "4710": "scorpion", "4711": "carrying", "4712": "vir", "4713": "chef", "4714": "local", "4715": "reck", "4716": "phe", "4717": "presents", "4718": "taps", "4719": "fold", "4720": "ceed", "4721": "drew", "4722": "cred", "4723": "kir", "4724": "literally", "4725": "oop", "4726": "radi", "4727": "thesis", "4728": "missing", "4729": "realizes", "4730": "acorn", "4731": "thor", "4732": "tale", "4733": "lan", "4734": "anti", "4735": "fiction", "4736": "releas", "4737": "spit", "4738": "thir", "4739": "kick", "4740": "hippo", "4741": "sort", "4742": "ars", "4743": "respective", "4744": "meth", "4745": "vest", "4746": "greater", "4747": "matt", "4748": "chief", "4749": "eaten", "4750": "simple", "4751": "dai", "4752": "40", "4753": "bles", "4754": "video", "4755": "sham", "4756": "avian", "4757": "goo", "4758": "holy", "4759": "laught", "4760": "rubs", "4761": "rein", "4762": "blind", "4763": "keeper", "4764": "elightlevel", "4765": "ators", "4766": "quit", "4767": "ifts", "4768": "pound", "4769": "wizard", "4770": "bushido", "4771": "oter", "4772": "sinister", "4773": "pointing", "4774": "thal", "4775": "apo", "4776": "man!", "4777": "breathing", "4778": "twins", "4779": "sab", "4780": "13", "4781": "floow", "4782": "floowand", "4783": "floowandere", "4784": "floowanderee", "4785": "floowandereeze", "4786": "wagon", "4787": "utop", "4788": "bread", "4789": "guitar", "4790": "complain", "4791": "eternity", "4792": "reef", "4793": "missed", "4794": "errand", "4795": "monitor", "4796": "upset", "4797": "know?", "4798": "shuts", "4799": "touches", "4800": "ya?", "4801": "hour", "4802": "blah", "4803": "barnacles", "4804": "whew", "4805": "maam", "4806": "gosh", "4807": "inhal", "4808": "buddy!", "4809": "frowns", "4810": "peanut", "4811": "ouch!", "4812": "citizens", "4813": "fools!", "4814": "doorbell", "4815": "drool", "4816": "escal", "4817": "recommend", "4818": "horns", "4819": "snakes", "4820": "alo", "4821": "humans", "4822": "rinth", "4823": "tus", "4824": "fruits", "4825": "kom", "4826": "believed", "4827": "roo", "4828": "berries", "4829": "sleeps", "4830": "appar", "4831": "comfortable", "4832": "antly", "4833": "soil", "4834": "function", "4835": "indic", "4836": "emo", "4837": "tically", "4838": "rapid", "4839": "harm", "4840": "hooks", "4841": "zi", "4842": "bucks", "4843": "ede", "4844": "village", "4845": "mary", "4846": "release", "4847": "pool", "4848": "ordinary", "4849": "aggres", "4850": "gence", "4851": "valu", "4852": "gment", "4853": "thick", "4854": "whenever", "4855": "storms", "4856": "plants", "4857": "pure", "4858": "lines", "4859": "coloration", "4860": "idence", "4861": "echo", "4862": "elephant", "4863": "trapped", "4864": "quire", "4865": "ences", "4866": "designed", "4867": "oul", "4868": "title", "4869": "cars", "4870": "held", "4871": "ruby", "4872": "letting", "4873": "bites", "4874": "liv", "4875": "drain", "4876": "separ", "4877": "iii", "4878": "chem", "4879": "press", "4880": "truth", "4881": "breed", "4882": "oni", "4883": "mighty", "4884": "synthesis", "4885": "bother", "4886": "regular", "4887": "pleas", "4888": "surf", "4889": "ping", "4890": "emin", "4891": "million", "4892": "science", "4893": "report", "4894": "hunt", "4895": "whirl", "4896": "ened", "4897": "bey", "4898": "locked", "4899": "ists", "4900": "confi", "4901": "epic", "4902": "method", "4903": "reveals", "4904": "opening", "4905": "ile", "4906": "ros", "4907": "licking", "4908": "suck", "4909": "hosp", "4910": "hospital", "4911": "buried", "4912": "urch", "4913": "mouse", "4914": "eyeb", "4915": "file", "4916": "stack", "4917": "plasma", "4918": "puffs", "4919": "worked", "4920": "vity", "4921": "responsi", "4922": "sui", "4923": "repeated", "4924": "libr", "4925": "hive", "4926": "malebran", "4927": "malebranche", "4928": "overlord", "4929": "merry", "4930": "pyrotype", "4931": "whichever", "4932": "bellion", "4933": "pand", "4934": "selects", "4935": "prediction", "4936": "hill", "4937": "successful", "4938": "breaker", "4939": "aba", "4940": "detaching", "4941": "lethal", "4942": "?def", "4943": "exec", "4944": "rules", "4945": "conducting", "4946": "optional", "4947": "prepare", "4948": "looked", "4949": "calling", "4950": "utopic", "4951": "graydle", "4952": "passion", "4953": "asty", "4954": "marty", "4955": "ww", "4956": "manager", "4957": "fascin", "4958": "confess", "4959": "holi", "4960": "pirates", "4961": "embarra", "4962": "embarrass", "4963": "sir!", "4964": "truly", "4965": "stares", "4966": "closet", "4967": "handle", "4968": "approaches", "4969": "lever", "4970": "tomato", "4971": "whispers", "4972": "inhales", "4973": "are!", "4974": "patties!", "4975": "lesson", "4976": "mean?", "4977": "never!", "4978": "clears", "4979": "plankton!", "4980": "boy?", "4981": "sweater", "4982": "trips", "4983": "ceiling", "4984": "suppose", "4985": "sure!", "4986": "ancho", "4987": "students", "4988": "jellyfishing!", "4989": "loop", "4990": "chops", "4991": "muscles", "4992": "coffee", "4993": "aaaaaaaaaaaaaaaa", "4994": "shit", "4995": "associ", "4996": "inch", "4997": "labyrinth", "4998": "nid", "4999": "blance", "5000": "inct"}, "tok2id": {"<PAD>": 0, "</w>": 1, "!": 2, "0": 3, "1": 4, "2": 5, "3": 6, "4": 7, "5": 8, "6": 9, "7": 10, "8": 11, "9": 12, "?": 13, "a": 14, "b": 15, "c": 16, "d": 17, "e": 18, "f": 19, "g": 20, "h": 21, "i": 22, "j": 23, "k": 24, "l": 25, "m": 26, "n": 27, "o": 28, "p": 29, "q": 30, "r": 31, "s": 32, "t": 33, "u": 34, "v": 35, "w": 36, "x": 37, "y": 38, "z": 39, "\u00e0": 40, "\u00e1": 41, "\u00e4": 42, "\u00e6": 43, "\u00e8": 44, "\u00e9": 45, "\u00ea": 46, "\u00ed": 47, "\u00ee": 48, "\u00ef": 49, "\u00f0": 50, "\u00f1": 51, "\u00f3": 52, "\u00f4": 53, "\u00f6": 54, "\u00f9": 55, "\u00fa": 56, "\u00fc": 57, "on": 58, "th": 59, "ou": 60, "er": 61, "an": 62, "you": 63, "ar": 64, "st": 65, "in": 66, "is": 67, "the": 68, "at": 69, "mon": 70, "ard": 71, "en": 72, "ec": 73, "ro": 74, "al": 75, "ster": 76, "card": 77, "monster": 78, "or": 79, "your": 80, "this": 81, "to": 82, "and": 83, "can": 84, "ac": 85, "ed": 86, "it": 87, "ur": 88, "el": 89, "le": 90, "of": 91, "ing": 92, "sp": 93, "se": 94, "um": 95, "ge": 96, "ef": 97, "ect": 98, "ra": 99, "ent": 100, "es": 101, "sum": 102, "summon": 103, "if": 104, "tur": 105, "rom": 106, "fect": 107, "turn": 108, "from": 109, "effect": 110, "ce": 111, "re": 112, "ial": 113, "pp": 114, "wh": 115, "ly": 116, "no": 117, "ont": 118, "de": 119, "att": 120, "as": 121, "monsters": 122, "ti": 123, "ve": 124, "am": 125, "spec": 126, "special": 127, "cont": 128, "rol": 129, "that": 130, "per": 131, "be": 132, "ri": 133, "opp": 134, "control": 135, "onent": 136, "opponent": 137, "get": 138, "fi": 139, "hand": 140, "ion": 141, "ch": 142, "end": 143, "by": 144, "dec": 145, "tar": 146, "ha": 147, "target": 148, "up": 149, "qu": 150, "once": 151, "un": 152, "ay": 153, "bo": 154, "do": 155, "dest": 156, "only": 157, "roy": 158, "ut": 159, "ith": 160, "me": 161, "destroy": 162, "ex": 163, "deck": 164, "ad": 165, "eld": 166, "gy": 167, "lo": 168, "li": 169, "field": 170, "not": 171, "ace": 172, "ack": 173, "for": 174, "po": 175, "gh": 176, "ach": 177, "with": 178, "vat": 179, "ell": 180, "00": 181, "us": 182, "acti": 183, "summoned": 184, "activat": 185, "ain": 186, "ir": 187, "ck": 188, "but": 189, "batt": 190, "face": 191, "when": 192, "ish": 193, "qui": 194, "its": 195, "use": 196, "so": 197, "battle": 198, "gra": 199, "faceup": 200, "atk": 201, "dur": 202, "during": 203, "cannot": 204, "vel": 205, "ke": 206, "tra": 207, "he": 208, "grave": 209, "yard": 210, "graveyard": 211, "attack": 212, "all": 213, "pl": 214, "cards": 215, "ther": 216, "ul": 217, "level": 218, "age": 219, "ol": 220, "each": 221, "then": 222, "ne": 223, "opponents": 224, "pha": 225, "om": 226, "spon": 227, "phase": 228, "spell": 229, "il": 230, "dam": 231, "sponge": 232, "bob": 233, "damage": 234, "ban": 235, "pt": 236, "ater": 237, "one": 238, "spongebob": 239, "sh": 240, "im": 241, "ght": 242, "banish": 243, "def": 244, "destroyed": 245, "dra": 246, "go": 247, "ow": 248, "pe": 249, "are": 250, "nor": 251, "ter": 252, "effects": 253, "ma": 254, "activate": 255, "mal": 256, "pos": 257, "exce": 258, "ver": 259, "except": 260, "ust": 261, "gain": 262, "ition": 263, "normal": 264, "whi": 265, "ts": 266, "add": 267, "ic": 268, "tri": 269, "id": 270, "oun": 271, "other": 272, "position": 273, "ta": 274, "ame": 275, "mater": 276, "material": 277, "ok": 278, "ty": 279, "out": 280, "controls": 281, "while": 282, "low": 283, "his": 284, "trap": 285, "ld": 286, "tribut": 287, "send": 288, "ig": 289, "my": 290, "xy": 291, "ate": 292, "ber": 293, "also": 294, "equi": 295, "fli": 296, "ste": 297, "ink": 298, "sent": 299, "any": 300, "xyz": 301, "play": 302, "her": 303, "was": 304, "have": 305, "gon": 306, "ore": 307, "we": 308, "ant": 309, "si": 310, "ble": 311, "ast": 312, "mo": 313, "sy": 314, "ense": 315, "hi": 316, "now": 317, "what": 318, "ation": 319, "pat": 320, "fus": 321, "wor": 322, "type": 323, "til": 324, "ward": 325, "ves": 326, "ers": 327, "fusion": 328, "until": 329, "defense": 330, "ill": 331, "co": 332, "ss": 333, "ry": 334, "neg": 335, "extra": 336, "rick": 337, "gains": 338, "ould": 339, "qual": 340, "equal": 341, "squi": 342, "tribute": 343, "way": 344, "pend": 345, "bec": 346, "more": 347, "ark": 348, "squid": 349, "reat": 350, "dragon": 351, "la": 352, "patrick": 353, "their": 354, "res": 355, "squidward": 356, "com": 357, "into": 358, "syn": 359, "pendul": 360, "pendulum": 361, "dis": 362, "ose": 363, "main": 364, "synch": 365, "od": 366, "ine": 367, "sc": 368, "af": 369, "ual": 370, "ear": 371, "zone": 372, "synchro": 373, "ni": 374, "set": 375, "op": 376, "draw": 377, "rit": 378, "ct": 379, "ound": 380, "rab": 381, "own": 382, "they": 383, "pped": 384, "ind": 385, "infli": 386, "ho": 387, "ff": 388, "uner": 389, "them": 390, "may": 391, "krab": 392, "like": 393, "num": 394, "ere": 395, "000": 396, "must": 397, "ab": 398, "ev": 399, "beast": 400, "number": 401, "ca": 402, "pi": 403, "dark": 404, "fer": 405, "app": 406, "than": 407, "negate": 408, "der": 409, "lea": 410, "su": 411, "link": 412, "step": 413, "lower": 414, "chan": 415, "uff": 416, "em": 417, "quick": 418, "500": 419, "activated": 420, "return": 421, "nt": 422, "discard": 423, "equip": 424, "ither": 425, "inal": 426, "poin": 427, "war": 428, "back": 429, "alk": 430, "thing": 431, "time": 432, "inflict": 433, "sel": 434, "equipped": 435, "spelltrap": 436, "ps": 437, "ritual": 438, "star": 439, "look": 440, "bl": 441, "just": 442, "take": 443, "place": 444, "mr": 445, "him": 446, "ph": 447, "rest": 448, "has": 449, "would": 450, "ey": 451, "ie": 452, "orig": 453, "oh": 454, "points": 455, "bu": 456, "some": 457, "gi": 458, "name": 459, "original": 460, "after": 461, "used": 462, "coun": 463, "lar": 464, "off": 465, "ess": 466, "sa": 467, "ever": 468, "ang": 469, "ak": 470, "banished": 471, "inc": 472, "wn": 473, "light": 474, "attacks": 475, "same": 476, "night": 477, "dif": 478, "ous": 479, "man": 480, "well": 481, "na": 482, "old": 483, "high": 484, "differ": 485, "change": 486, "et": 487, "kes": 488, "either": 489, "side": 490, "there": 491, "rior": 492, "con": 493, "counter": 494, "know": 495, "warrior": 496, "ary": 497, "gu": 498, "ext": 499, "ken": 500, "1000": 501, "red": 502, "right": 503, "how": 504, "stand": 505, "ving": 506, "krabs": 507, "over": 508, "make": 509, "fac": 510, "got": 511, "different": 512, "ice": 513, "lif": 514, "top": 515, "dont": 516, "who": 517, "tw": 518, "fish": 519, "read": 520, "here": 521, "ran": 522, "omes": 523, "water": 524, "run": 525, "ally": 526, "leaves": 527, "ru": 528, "using": 529, "becomes": 530, "lp": 531, "row": 532, "good": 533, "dir": 534, "sand": 535, "these": 536, "ga": 537, "tuner": 538, "less": 539, "det": 540, "shuff": 541, "ah": 542, "uh": 543, "king": 544, "ong": 545, "ough": 546, "those": 547, "detach": 548, "air": 549, "walk": 550, "ated": 551, "higher": 552, "bin": 553, "lose": 554, "fire": 555, "ure": 556, "ian": 557, "head": 558, "stead": 559, "sk": 560, "tom": 561, "token": 562, "instead": 563, "ies": 564, "wa": 565, "cur": 566, "combin": 567, "ll": 568, "cal": 569, "direct": 570, "mach": 571, "les": 572, "act": 573, "ved": 574, "select": 575, "players": 576, "player": 577, "activation": 578, "ep": 579, "treat": 580, "down": 581, "under": 582, "cy": 583, "edown": 584, "cul": 585, "both": 586, "ream": 587, "ins": 588, "facedown": 589, "fol": 590, "life": 591, "next": 592, "were": 593, "shuffle": 594, "day": 595, "pro": 596, "about": 597, "mag": 598, "ely": 599, "follow": 600, "lau": 601, "ite": 602, "another": 603, "let": 604, "materials": 605, "du": 606, "reve": 607, "reveal": 608, "tal": 609, "did": 610, "again": 611, "hero": 612, "arm": 613, "sandy": 614, "os": 615, "fir": 616, "par": 617, "ree": 618, "machine": 619, "fo": 620, "see": 621, "nont": 622, "every": 623, "laugh": 624, "wing": 625, "come": 626, "ity": 627, "knight": 628, "declar": 629, "nontuner": 630, "ames": 631, "our": 632, "gr": 633, "where": 634, "remo": 635, "dy": 636, "col": 637, "first": 638, "ting": 639, "resol": 640, "treated": 641, "fe": 642, "ome": 643, "following": 644, "even": 645, "rent": 646, "ton": 647, "eyes": 648, "takes": 649, "current": 650, "pay": 651, "ia": 652, "hal": 653, "elly": 654, "put": 655, "est": 656, "show": 657, "think": 658, "ase": 659, "bot": 660, "ye": 661, "lu": 662, "world": 663, "gary": 664, "combination": 665, "will": 666, "hey": 667, "anc": 668, "door": 669, "mi": 670, "ord": 671, "gl": 672, "rock": 673, "ence": 674, "want": 675, "whose": 676, "calcul": 677, "standby": 678, "calculation": 679, "negated": 680, "great": 681, "cho": 682, "300": 683, "bas": 684, "directly": 685, "jelly": 686, "sha": 687, "game": 688, "sec": 689, "does": 690, "ive": 691, "too": 692, "around": 693, "two": 694, "hel": 695, "earth": 696, "av": 697, "itch": 698, "tion": 699, "ot": 700, "ens": 701, "bar": 702, "wind": 703, "battles": 704, "cyber": 705, "magic": 706, "ways": 707, "ser": 708, "pan": 709, "flip": 710, "youre": 711, "ment": 712, "ribut": 713, "ning": 714, "ring": 715, "form": 716, "ai": 717, "attribut": 718, "cut": 719, "iat": 720, "yes": 721, "ks": 722, "fl": 723, "ag": 724, "targets": 725, "andor": 726, "ys": 727, "ears": 728, "vol": 729, "thats": 730, "mer": 731, "which": 732, "ull": 733, "book": 734, "walks": 735, "ip": 736, "tle": 737, "destroys": 738, "pre": 739, "say": 740, "pok": 741, "many": 742, "mar": 743, "black": 744, "still": 745, "ron": 746, "targeted": 747, "lit": 748, "become": 749, "names": 750, "fiend": 751, "atkdef": 752, "it!": 753, "pok\u00e9": 754, "ama": 755, "plant": 756, "fri": 757, "yeah": 758, "des": 759, "atch": 760, "love": 761, "hes": 762, "ouse": 763, "ise": 764, "rust": 765, "okay": 766, "min": 767, "away": 768, "ding": 769, "runs": 770, "cry": 771, "fun": 772, "going": 773, "jo": 774, "resolves": 775, "really": 776, "ement": 777, "cant": 778, "bur": 779, "jellyfish": 780, "declares": 781, "spir": 782, "tributing": 783, "start": 784, "car": 785, "ause": 786, "activates": 787, "200": 788, "patt": 789, "!!": 790, "she": 791, "word": 792, "pok\u00e9mon": 793, "cl": 794, "eat": 795, "stop": 796, "bet": 797, "bottom": 798, "rough": 799, "ide": 800, "led": 801, "dd": 802, "house": 803, "hold": 804, "based": 805, "din": 806, "ist": 807, "zon": 808, "because": 809, "ja": 810, "list": 811, "ue": 812, "tim": 813, "pa": 814, "summonedset": 815, "hear": 816, "cks": 817, "dr": 818, "tell": 819, "through": 820, "ass": 821, "gen": 822, "sw": 823, "spongebobs": 824, "med": 825, "rease": 826, "ready": 827, "ious": 828, "work": 829, "land": 830, "laughs": 831, "rel": 832, "apply": 833, "ign": 834, "mu": 835, "why": 836, "long": 837, "fly": 838, "attach": 839, "roll": 840, "te": 841, "mean": 842, "aby": 843, "currently": 844, "body": 845, "friend": 846, "100": 847, "ond": 848, "bre": 849, "bi": 850, "very": 851, "could": 852, "fall": 853, "been": 854, "iz": 855, "levels": 856, "che": 857, "mor": 858, "pr": 859, "ful": 860, "bble": 861, "new": 862, "never": 863, "leg": 864, "super": 865, "need": 866, "sor": 867, "element": 868, "little": 869, "drag": 870, "had": 871, "cra": 872, "ki": 873, "rank": 874, "remove": 875, "tic": 876, "loses": 877, "squ": 878, "attribute": 879, "total": 880, "800": 881, "tributed": 882, "plan": 883, "zom": 884, "possi": 885, "invol": 886, "ult": 887, "able": 888, "rusty": 889, "pal": 890, "boy": 891, "pri": 892, "increase": 893, "lord": 894, "win": 895, "bie": 896, "krusty": 897, "self": 898, "looks": 899, "ror": 900, "pres": 901, "talk": 902, "sea": 903, "?!": 904, "ko": 905, "fair": 906, "bubble": 907, "cle": 908, "counters": 909, "ze": 910, "contin": 911, "zombie": 912, "second": 913, "scream": 914, "sm": 915, "decl": 916, "ance": 917, "declare": 918, "ler": 919, "best": 920, "caster": 921, "fur": 922, "affect": 923, "sho": 924, "elemental": 925, "clo": 926, "gre": 927, "insect": 928, "spellcaster": 929, "ling": 930, "pow": 931, "stor": 932, "jum": 933, "try": 934, "bs": 935, "big": 936, "cyberse": 937, "gonna": 938, "sal": 939, "aa": 940, "spongebob!": 941, "val": 942, "affected": 943, "give": 944, "attacking": 945, "s!": 946, "peop": 947, "half": 948, "non": 949, "puts": 950, "wait": 951, "should": 952, "rand": 953, "evol": 954, "ient": 955, "always": 956, "winged": 957, "ight": 958, "nin": 959, "ash": 960, "sam": 961, "unaffected": 962, "happ": 963, "mus": 964, "ene": 965, "gets": 966, "magician": 967, "people": 968, "dri": 969, "attacked": 970, "sou": 971, "ses": 972, "much": 973, "2000": 974, "continu": 975, "bor": 976, "call": 977, "fairy": 978, "ref": 979, "dou": 980, "kid": 981, "most": 982, "arch": 983, "creat": 984, "sound": 985, "aw": 986, "ick": 987, "vi": 988, "home": 989, "flo": 990, "bel": 991, "cts": 992, "tokens": 993, "being": 994, "sure": 995, "son": 996, "owners": 997, "without": 998, "samur": 999, "mas": 1000, "turns": 1001, "bef": 1002, "ground": 1003, "samurai": 1004, "something": 1005, "fa": 1006, "inflicts": 1007, "di": 1008, "three": 1009, "10": 1010, "patty": 1011, "ating": 1012, "ged": 1013, "meow": 1014, "ype": 1015, "evil": 1016, "exact": 1017, "before": 1018, "dream": 1019, "gho": 1020, "box": 1021, "immed": 1022, "bus": 1023, "six": 1024, "immediat": 1025, "immediately": 1026, "hands": 1027, "hor": 1028, "zones": 1029, "inside": 1030, "sing": 1031, "exactly": 1032, "ancient": 1033, "possible": 1034, "power": 1035, "help": 1036, "neither": 1037, "cryst": 1038, "ny": 1039, "tor": 1040, "mm": 1041, "rep": 1042, "flying": 1043, "gal": 1044, "involving": 1045, "tty": 1046, "abyss": 1047, "spe": 1048, "cing": 1049, "dow": 1050, "ought": 1051, "saur": 1052, "ator": 1053, "oo": 1054, "inclu": 1055, "summons": 1056, "blue": 1057, "said": 1058, "glad": 1059, "iny": 1060, "ten": 1061, "goes": 1062, "sur": 1063, "sun": 1064, "ple": 1065, "tru": 1066, "ger": 1067, "times": 1068, "fr": 1069, "ical": 1070, "ship": 1071, "vis": 1072, "ba": 1073, "ture": 1074, "starts": 1075, "ird": 1076, "lets": 1077, "ents": 1078, "rec": 1079, "zz": 1080, "sky": 1081, "soul": 1082, "pants": 1083, "sess": 1084, "sem": 1085, "har": 1086, "ka": 1087, "everyone": 1088, "shows": 1089, "sle": 1090, "ghost": 1091, "dog": 1092, "cor": 1093, "ball": 1094, "sign": 1095, "ju": 1096, "400": 1097, "appears": 1098, "order": 1099, "ner": 1100, "lad": 1101, "blow": 1102, "sorry": 1103, "pen": 1104, "comes": 1105, "exca": 1106, "excavat": 1107, "sends": 1108, "ans": 1109, "stri": 1110, "dro": 1111, "possess": 1112, "huh": 1113, "whats": 1114, "heav": 1115, "gold": 1116, "doing": 1117, "eye": 1118, "thunder": 1119, "break": 1120, "reme": 1121, "no!": 1122, "ven": 1123, "arms": 1124, "real": 1125, "perfor": 1126, "uck": 1127, "ft": 1128, "chain": 1129, "ech": 1130, "ort": 1131, "opens": 1132, "feel": 1133, "sim": 1134, "ions": 1135, "makes": 1136, "sword": 1137, "rows": 1138, "dol": 1139, "pho": 1140, "choose": 1141, "screams": 1142, "plank": 1143, "osaur": 1144, "spirit": 1145, "pier": 1146, "krabby": 1147, "zing": 1148, "including": 1149, "noble": 1150, "random": 1151, "ret": 1152, "gener": 1153, "bro": 1154, "money": 1155, "lease": 1156, "performa": 1157, "performapal": 1158, "resem": 1159, "stra": 1160, "oud": 1161, "int": 1162, "ket": 1163, "crystal": 1164, "tail": 1165, "maid": 1166, "better": 1167, "please": 1168, "plankton": 1169, "kind": 1170, "pull": 1171, "ontype": 1172, "phan": 1173, "duel": 1174, "mir": 1175, "psy": 1176, "wan": 1177, "iator": 1178, "bad": 1179, "1500": 1180, "piercing": 1181, "mis": 1182, "ates": 1183, "cook": 1184, "watch": 1185, "dragontype": 1186, "abo": 1187, "art": 1188, "bit": 1189, "dinosaur": 1190, "fin": 1191, "vo": 1192, "ya": 1193, "beastwarrior": 1194, "bal": 1195, "anything": 1196, "last": 1197, "gladiator": 1198, "room": 1199, "salam": 1200, "unk": 1201, "uhh": 1202, "squidward!": 1203, "appear": 1204, "ild": 1205, "net": 1206, "skill": 1207, "nice": 1208, "white": 1209, "ily": 1210, "result": 1211, "bra": 1212, "falls": 1213, "irl": 1214, "flipped": 1215, "cri": 1216, "refer": 1217, "move": 1218, "da": 1219, "vent": 1220, "piec": 1221, "fro": 1222, "repti": 1223, "que": 1224, "bed": 1225, "addition": 1226, "paper": 1227, "hind": 1228, "made": 1229, "law": 1230, "lam": 1231, "removed": 1232, "ele": 1233, "imp": 1234, "continuous": 1235, "jumps": 1236, "kids": 1237, "hy": 1238, "ese": 1239, "boo": 1240, "part": 1241, "ub": 1242, "double": 1243, "exc": 1244, "nothing": 1245, "puff": 1246, "phantom": 1247, "mrs": 1248, "mou": 1249, "sol": 1250, "reas": 1251, "beg": 1252, "changed": 1253, "cool": 1254, "dut": 1255, "ually": 1256, "cro": 1257, "nat": 1258, "umn": 1259, "jin": 1260, "banishing": 1261, "left": 1262, "scene": 1263, "uses": 1264, "hard": 1265, "rong": 1266, "fam": 1267, "pur": 1268, "later": 1269, "found": 1270, "gasp": 1271, "writ": 1272, "joy": 1273, "declared": 1274, "front": 1275, "find": 1276, "dition": 1277, "column": 1278, "ically": 1279, "behind": 1280, "key": 1281, "br": 1282, "wear": 1283, "wish": 1284, "tain": 1285, "mouth": 1286, "summoning": 1287, "salamang": 1288, "salamangreat": 1289, "squidwards": 1290, "above": 1291, "ug": 1292, "ters": 1293, "0def": 1294, "ress": 1295, "mind": 1296, "cer": 1297, "hun": 1298, "giant": 1299, "kin": 1300, "mirror": 1301, "wow": 1302, "possession": 1303, "switch": 1304, "sleep": 1305, "acle": 1306, "guy": 1307, "scar": 1308, "ula": 1309, "open": 1310, "tran": 1311, "blackwing": 1312, "heavy": 1313, "hat": 1314, "fight": 1315, "island": 1316, "inter": 1317, "window": 1318, "dutch": 1319, "selected": 1320, "ider": 1321, "elect": 1322, "char": 1323, "keep": 1324, "crow": 1325, "thought": 1326, "ale": 1327, "unless": 1328, "zo": 1329, "holds": 1330, "sending": 1331, "cr": 1332, "shi": 1333, "stops": 1334, "boat": 1335, "dutchman": 1336, "guess": 1337, "seen": 1338, "iron": 1339, "scre": 1340, "destiny": 1341, "typ": 1342, "ms": 1343, "cust": 1344, "ignor": 1345, "food": 1346, "chic": 1347, "anger": 1348, "thanks": 1349, "vers": 1350, "machinetype": 1351, "me!": 1352, "pick": 1353, "die": 1354, "didnt": 1355, "gear": 1356, "grabs": 1357, "phases": 1358, "resemble": 1359, "tun": 1360, "kar": 1361, "combined": 1362, "ush": 1363, "spells": 1364, "aqu": 1365, "witch": 1366, "sir": 1367, "heart": 1368, "pretty": 1369, "gasps": 1370, "ution": 1371, "arl": 1372, "yr": 1373, "cuts": 1374, "huh?": 1375, "live": 1376, "incess": 1377, "sil": 1378, "lady": 1379, "true": 1380, "condition": 1381, "pu": 1382, "tries": 1383, "uce": 1384, "bun": 1385, "enough": 1386, "creature": 1387, "girl": 1388, "fav": 1389, "ted": 1390, "psychic": 1391, "swe": 1392, "mber": 1393, "lot": 1394, "600": 1395, "ier": 1396, "infer": 1397, "roid": 1398, "beasttype": 1399, "uri": 1400, "inspir": 1401, "pred": 1402, "ire": 1403, "nose": 1404, "wall": 1405, "sna": 1406, "bow": 1407, "sees": 1408, "1atk": 1409, "pulls": 1410, "ats": 1411, "oc": 1412, "known": 1413, "reptile": 1414, "force": 1415, "barn": 1416, "crowd": 1417, "attached": 1418, "gala": 1419, "speed": 1420, "ee": 1421, "mel": 1422, "rai": 1423, "remain": 1424, "galaxy": 1425, "shar": 1426, "theres": 1427, "maybe": 1428, "eck": 1429, "san": 1430, "fan": 1431, "screen": 1432, "toon": 1433, "such": 1434, "seem": 1435, "pic": 1436, "ouch": 1437, "friends": 1438, "doll": 1439, "betwe": 1440, "between": 1441, "conditions": 1442, "del": 1443, "bird": 1444, "sli": 1445, "pearl": 1446, "ap": 1447, "piece": 1448, "tron": 1449, "ignoring": 1450, "wise": 1451, "table": 1452, "sar": 1453, "guard": 1454, "ath": 1455, "eas": 1456, "poly": 1457, "secret": 1458, "osen": 1459, "!!!!": 1460, "spect": 1461, "master": 1462, "vie": 1463, "ather": 1464, "music": 1465, "ptor": 1466, "laughing": 1467, "patricks": 1468, "bea": 1469, "himself": 1470, "dum": 1471, "free": 1472, "hello": 1473, "favor": 1474, "japan": 1475, "van": 1476, "sounds": 1477, "ninja": 1478, "grand": 1479, "phone": 1480, "ived": 1481, "ides": 1482, "alter": 1483, "least": 1484, "outs": 1485, "resolve": 1486, "warriortype": 1487, "listen": 1488, "rap": 1489, "ric": 1490, "bri": 1491, "blo": 1492, "danger": 1493, "ness": 1494, "gives": 1495, "ization": 1496, "cha": 1497, "lights": 1498, "planttype": 1499, "odde": 1500, "oddeyes": 1501, "bell": 1502, "appro": 1503, "story": 1504, "ures": 1505, "bud": 1506, "coming": 1507, "metal": 1508, "twice": 1509, "respon": 1510, "tend": 1511, "tr": 1512, "flower": 1513, "bring": 1514, "pain": 1515, "amazon": 1516, "cent": 1517, "bly": 1518, "shell": 1519, "actor": 1520, "ker": 1521, "catch": 1522, "fine": 1523, "you!": 1524, "anim": 1525, "derived": 1526, "things": 1527, "bla": 1528, "sub": 1529, "pie": 1530, "duct": 1531, "bikin": 1532, "bikini": 1533, "though": 1534, "ancer": 1535, "plac": 1536, "exp": 1537, "max": 1538, "trans": 1539, "summonset": 1540, "polymer": 1541, "amazoness": 1542, "spongebob?": 1543, "line": 1544, "ction": 1545, "lim": 1546, "mat": 1547, "voice": 1548, "polymerization": 1549, "gg": 1550, "met": 1551, "kee": 1552, "took": 1553, "trick": 1554, "fing": 1555, "bing": 1556, "revealed": 1557, "enjoy": 1558, "toge": 1559, "otherwise": 1560, "wo": 1561, "japanese": 1562, "barnacle": 1563, "gar": 1564, "playing": 1565, "thank": 1566, "getting": 1567, "magi": 1568, "stuff": 1569, "dic": 1570, "color": 1571, "beaut": 1572, "supp": 1573, "stay": 1574, "spellcastertype": 1575, "battled": 1576, "patrick!": 1577, "evolution": 1578, "gig": 1579, "having": 1580, "atter": 1581, "whe": 1582, "mek": 1583, "done": 1584, "rist": 1585, "draws": 1586, "wrong": 1587, "raidra": 1588, "raidraptor": 1589, "throws": 1590, "what?": 1591, "don": 1592, "sin": 1593, "ident": 1594, "won": 1595, "sit": 1596, "outside": 1597, "photon": 1598, "today": 1599, "superheavy": 1600, "lay": 1601, "ato": 1602, "ute": 1603, "person": 1604, "ics": 1605, "looking": 1606, "dry": 1607, "board": 1608, "excavate": 1609, "picks": 1610, "y!": 1611, "gaga": 1612, "patties": 1613, "ls": 1614, "amp": 1615, "close": 1616, "favorite": 1617, "leave": 1618, "iru": 1619, "elf": 1620, "wards": 1621, "sed": 1622, "3000": 1623, "drink": 1624, "conduct": 1625, "remember": 1626, "pop": 1627, "worm": 1628, "small": 1629, "mul": 1630, "ones": 1631, "halved": 1632, "lin": 1633, "hum": 1634, "idea": 1635, "enem": 1636, "enemies": 1637, "irt": 1638, "moves": 1639, "ing!": 1640, "sold": 1641, "controller": 1642, "discarded": 1643, "ilar": 1644, "specif": 1645, "together": 1646, "prot": 1647, "hair": 1648, "ided": 1649, "str": 1650, "ashi": 1651, "making": 1652, "hire": 1653, "unity": 1654, "already": 1655, "ium": 1656, "tear": 1657, "sn": 1658, "den": 1659, "electric": 1660, "loon": 1661, "clean": 1662, "lun": 1663, "uto": 1664, "drac": 1665, "ina": 1666, "aki": 1667, "happen": 1668, "cket": 1669, "sym": 1670, "cover": 1671, "hu": 1672, "ii": 1673, "eng": 1674, "green": 1675, "isnt": 1676, "band": 1677, "kis": 1678, "straps": 1679, "blows": 1680, "animal": 1681, "grow": 1682, "deep": 1683, "ped": 1684, "myth": 1685, "tree": 1686, "pass": 1687, "protect": 1688, "mom": 1689, "train": 1690, "entire": 1691, "multi": 1692, "chi": 1693, "balloon": 1694, "spring": 1695, "far": 1696, "mine": 1697, "difference": 1698, "notic": 1699, "talking": 1700, "spellstraps": 1701, "text": 1702, "wait!": 1703, "specifically": 1704, "acc": 1705, "final": 1706, "gue": 1707, "arn": 1708, "els": 1709, "running": 1710, "era": 1711, "burning": 1712, "gri": 1713, "baby": 1714, "floor": 1715, "finish": 1716, "sister": 1717, "gotta": 1718, "archfiend": 1719, "lant": 1720, "everything": 1721, "krabs!": 1722, "aaaa": 1723, "cre": 1724, "due": 1725, "trying": 1726, "returned": 1727, "natur": 1728, "mermaid": 1729, "custom": 1730, "700": 1731, "christ": 1732, "pent": 1733, "ces": 1734, "vic": 1735, "const": 1736, "sty": 1737, "psychictype": 1738, "hang": 1739, "roz": 1740, "appli": 1741, "buddy": 1742, "marincess": 1743, "sion": 1744, "near": 1745, "ench": 1746, "magical": 1747, "nek": 1748, "pink": 1749, "whole": 1750, "blueeyes": 1751, "doesnt": 1752, "pun": 1753, "games": 1754, "abil": 1755, "sive": 1756, "geist": 1757, "response": 1758, "listed": 1759, "terror": 1760, "traps": 1761, "neo": 1762, "desp": 1763, "stic": 1764, "beautif": 1765, "mech": 1766, "reference": 1767, "choice": 1768, "edge": 1769, "tied": 1770, "clar": 1771, "ray": 1772, "flies": 1773, "gou": 1774, "understand": 1775, "redeyes": 1776, "shad": 1777, "shaddoll": 1778, "ghostrick": 1779, "similar": 1780, "reg": 1781, "hook": 1782, "hur": 1783, "ison": 1784, "depend": 1785, "hot": 1786, "years": 1787, "wonder": 1788, "altergeist": 1789, "gouki": 1790, "spot": 1791, "offi": 1792, "class": 1793, "moon": 1794, "rier": 1795, "view": 1796, "scale": 1797, "formation": 1798, "heads": 1799, "ieve": 1800, "antas": 1801, "yet": 1802, "chool": 1803, "wel": 1804, "reduce": 1805, "hope": 1806, "warriors": 1807, "nekroz": 1808, "wanna": 1809, "square": 1810, "beautiful": 1811, "kai": 1812, "lect": 1813, "pet": 1814, "fla": 1815, "it?": 1816, "sup": 1817, "pers": 1818, "soldier": 1819, "wont": 1820, "kno": 1821, "job": 1822, "scrap": 1823, "morning": 1824, "excavated": 1825, "koaki": 1826, "meiru": 1827, "dragunity": 1828, "nam": 1829, "ops": 1830, "por": 1831, "large": 1832, "ging": 1833, "cap": 1834, "taken": 1835, "present": 1836, "comp": 1837, "living": 1838, "gust": 1839, "mother": 1840, "ek": 1841, "fist": 1842, "school": 1843, "ushes": 1844, "youve": 1845, "pops": 1846, "ax": 1847, "family": 1848, "jump": 1849, "fu": 1850, "ali": 1851, "almost": 1852, "onto": 1853, "heard": 1854, "serpent": 1855, "perfect": 1856, "else": 1857, "amazing": 1858, "lists": 1859, "hip": 1860, "kitch": 1861, "notices": 1862, "design": 1863, "ob": 1864, "itself": 1865, "warm": 1866, "ley": 1867, "action": 1868, "cloud": 1869, "acy": 1870, "might": 1871, "crash": 1872, "town": 1873, "men": 1874, "few": 1875, "aly": 1876, "awes": 1877, "here!": 1878, "ches": 1879, "cat": 1880, "gem": 1881, "fallen": 1882, "eating": 1883, "tent": 1884, "remains": 1885, "foot": 1886, "haha": 1887, "added": 1888, "morph": 1889, "toss": 1890, "halve": 1891, "awesome": 1892, "dinom": 1893, "guys": 1894, "happy": 1895, "cross": 1896, "claw": 1897, "ask": 1898, "advent": 1899, "returns": 1900, "holding": 1901, "resc": 1902, "clear": 1903, "phon": 1904, "attributes": 1905, "vend": 1906, "christmas": 1907, "kitchen": 1908, "lol": 1909, "fix": 1910, "since": 1911, "burn": 1912, "hole": 1913, "someone": 1914, "gone": 1915, "coin": 1916, "patroll": 1917, "hmm": 1918, "ua": 1919, "wyr": 1920, "glass": 1921, "harpie": 1922, "clarine": 1923, "actually": 1924, "legs": 1925, "tre": 1926, "wild": 1927, "zy": 1928, "ix": 1929, "care": 1930, "ellow": 1931, "knights": 1932, "believe": 1933, "squir": 1934, "skull": 1935, "ah!": 1936, "fiendtype": 1937, "plunder": 1938, "bujin": 1939, "arknight": 1940, "working": 1941, "trickstar": 1942, "spat": 1943, "pizz": 1944, "resembles": 1945, "onom": 1946, "shown": 1947, "cream": 1948, "kill": 1949, "acks": 1950, "full": 1951, "py": 1952, "bab": 1953, "cess": 1954, "prom": 1955, "jar": 1956, "cil": 1957, "wyrm": 1958, "chaos": 1959, "bound": 1960, "says": 1961, "clarinet": 1962, "shape": 1963, "absol": 1964, "fluff": 1965, "allow": 1966, "rain": 1967, "mong": 1968, "foes": 1969, "core": 1970, "cub": 1971, "four": 1972, "ultim": 1973, "pupp": 1974, "brother": 1975, "echa": 1976, "continues": 1977, "barrier": 1978, "walking": 1979, "chron": 1980, "funny": 1981, "yourself": 1982, "fry": 1983, "that?": 1984, "potty": 1985, "spo": 1986, "huge": 1987, "lead": 1988, "rible": 1989, "rose": 1990, "mecha": 1991, "mini": 1992, "forget": 1993, "weather": 1994, "rescue": 1995, "mail": 1996, "sixs": 1997, "sixsided": 1998, "supreme": 1999, "pia": 2000, "welcome": 2001, "worn": 2002, "peri": 2003, "seems": 2004, "among": 2005, "check": 2006, "rolls": 2007, "touch": 2008, "told": 2009, "changes": 2010, "aking": 2011, "ief": 2012, "fright": 2013, "craf": 2014, "sarc": 2015, "yosen": 2016, "utopia": 2017, "iac": 2018, "pencil": 2019, "ery": 2020, "ible": 2021, "mist": 2022, "wearing": 2023, "treas": 2024, "ises": 2025, "god": 2026, "ught": 2027, "hit": 2028, "mentions": 2029, "clock": 2030, "sl": 2031, "kuri": 2032, "gim": 2033, "tears": 2034, "crying": 2035, "appropri": 2036, "appropriate": 2037, "targeting": 2038, "youll": 2039, "hh": 2040, "gary!": 2041, "stone": 2042, "possibly": 2043, "dist": 2044, "fre": 2045, "kan": 2046, "round": 2047, "rok": 2048, "ines": 2049, "ability": 2050, "gan": 2051, "pire": 2052, "means": 2053, "wanted": 2054, "union": 2055, "buil": 2056, "ations": 2057, "fortun": 2058, "spellbook": 2059, "prank": 2060, "ular": 2061, "ings": 2062, "anch": 2063, "ject": 2064, "quest": 2065, "fast": 2066, "aur": 2067, "vely": 2068, "orp": 2069, "shoes": 2070, "vor": 2071, "easy": 2072, "spac": 2073, "gemknight": 2074, "legacy": 2075, "vendread": 2076, "yeah!": 2077, "alright": 2078, "ons": 2079, "apple": 2080, "gree": 2081, "inspired": 2082, "ries": 2083, "gro": 2084, "along": 2085, "lost": 2086, "legend": 2087, "ited": 2088, "ount": 2089, "mask": 2090, "vine": 2091, "gry": 2092, "upid": 2093, "aider": 2094, "teach": 2095, "igni": 2096, "ignister": 2097, "ultimate": 2098, "angel": 2099, "vay": 2100, "vaylant": 2101, "vaylantz": 2102, "speedroid": 2103, "avat": 2104, "avatar": 2105, "witchcraf": 2106, "witchcrafter": 2107, "spatula": 2108, "powerful": 2109, "common": 2110, "patch": 2111, "poe": 2112, "search": 2113, "ied": 2114, "fra": 2115, "bear": 2116, "cold": 2117, "ced": 2118, "begins": 2119, "eful": 2120, "yellow": 2121, "ik": 2122, "clam": 2123, "controlled": 2124, "picture": 2125, "bled": 2126, "party": 2127, "utant": 2128, "worry": 2129, "buy": 2130, "cubic": 2131, "everybody": 2132, "generaider": 2133, "cardian": 2134, "madol": 2135, "madolche": 2136, "prankkids": 2137, "pizza": 2138, "horn": 2139, "zes": 2140, "emper": 2141, "myster": 2142, "mess": 2143, "cir": 2144, "cular": 2145, "cking": 2146, "nec": 2147, "learn": 2148, "dual": 2149, "point": 2150, "words": 2151, "angle": 2152, "battling": 2153, "tech": 2154, "eks": 2155, "cand": 2156, "vam": 2157, "bath": 2158, "boys": 2159, "puppet": 2160, "acoun": 2161, "bye": 2162, "danger!": 2163, "fach": 2164, "fachord": 2165, "au": 2166, "ils": 2167, "chil": 2168, "sometimes": 2169, "og": 2170, "reach": 2171, "stick": 2172, "perform": 2173, "depending": 2174, "begin": 2175, "hits": 2176, "reading": 2177, "thes": 2178, "ift": 2179, "feet": 2180, "virt": 2181, "alba": 2182, "armed": 2183, "saber": 2184, "equals": 2185, "desk": 2186, "shot": 2187, "involve": 2188, "gs": 2189, "idden": 2190, "pping": 2191, "ds": 2192, "ino": 2193, "phys": 2194, "slow": 2195, "queen": 2196, "late": 2197, "golden": 2198, "test": 2199, "ously": 2200, "vampire": 2201, "transfer": 2202, "alone": 2203, "stupid": 2204, "sault": 2205, "rating": 2206, "gys": 2207, "striker": 2208, "albaz": 2209, "neos": 2210, "dogmat": 2211, "zef": 2212, "neospac": 2213, "neospacian": 2214, "mayak": 2215, "throw": 2216, "onomato": 2217, "onomatopoe": 2218, "kaiju": 2219, "treasure": 2220, "against": 2221, "team": 2222, "zer": 2223, "wheel": 2224, "drops": 2225, "oj": 2226, "flame": 2227, "atic": 2228, "fully": 2229, "rub": 2230, "pper": 2231, "nintend": 2232, "graph": 2233, "finally": 2234, "thinking": 2235, "smell": 2236, "pir": 2237, "angry": 2238, "wi": 2239, "lightsworn": 2240, "gemini": 2241, "dragonmaid": 2242, "nity": 2243, "mayakashi": 2244, "go!": 2245, "frightfur": 2246, "yosenju": 2247, "morphtron": 2248, "morphtronic": 2249, "fool": 2250, "myutant": 2251, "theyre": 2252, "alal": 2253, "va": 2254, "ui": 2255, "umi": 2256, "tan": 2257, "iness": 2258, "proble": 2259, "stru": 2260, "aqua": 2261, "breaks": 2262, "capt": 2263, "case": 2264, "berry": 2265, "dead": 2266, "cked": 2267, "assault": 2268, "earthlevel": 2269, "yang": 2270, "closes": 2271, "ellar": 2272, "raw": 2273, "yl": 2274, "sforce": 2275, "tg": 2276, "back!": 2277, "tv": 2278, "leaving": 2279, "ci": 2280, "anchor": 2281, "uts": 2282, "uary": 2283, "slam": 2284, "dance": 2285, "ried": 2286, "style": 2287, "types": 2288, "bubbles": 2289, "childr": 2290, "cu": 2291, "mare": 2292, "synchron": 2293, "gogo": 2294, "gole": 2295, "je": 2296, "went": 2297, "nintendo": 2298, "gate": 2299, "dirty": 2300, "rescueace": 2301, "reptiletype": 2302, "tributes": 2303, "chronom": 2304, "chronomaly": 2305, "constellar": 2306, "sandys": 2307, "rings": 2308, "vern": 2309, "youn": 2310, "bag": 2311, "une": 2312, "empt": 2313, "lands": 2314, "cour": 2315, "acro": 2316, "ika": 2317, "captain": 2318, "shadow": 2319, "acles": 2320, "wom": 2321, "amount": 2322, "mand": 2323, "cou": 2324, "smi": 2325, "oper": 2326, "revealing": 2327, "rokket": 2328, "lv": 2329, "nordic": 2330, "insecttype": 2331, "darklord": 2332, "hey!": 2333, "karate": 2334, "kev": 2335, "fuck": 2336, "ities": 2337, "akes": 2338, "imag": 2339, "cries": 2340, "ours": 2341, "ory": 2342, "yo": 2343, "often": 2344, "owner": 2345, "20": 2346, "flow": 2347, "drive": 2348, "saw": 2349, "soon": 2350, "danc": 2351, "sad": 2352, "burst": 2353, "quar": 2354, "past": 2355, "building": 2356, "customers": 2357, "rope": 2358, "fab": 2359, "fingers": 2360, "five": 2361, "phantas": 2362, "up!": 2363, "pride": 2364, "lunal": 2365, "wonderful": 2366, "ugly": 2367, "sanct": 2368, "ddd": 2369, "solfachord": 2370, "drytron": 2371, "eh": 2372, "squidward?": 2373, "drives": 2374, "interest": 2375, "moth": 2376, "however": 2377, "onomatopoeia": 2378, "ume": 2379, "cause": 2380, "zek": 2381, "sto": 2382, "ering": 2383, "luck": 2384, "golem": 2385, "quant": 2386, "saved": 2387, "hungry": 2388, "matter": 2389, "regi": 2390, "nerv": 2391, "purr": 2392, "stard": 2393, "4atk": 2394, "valk": 2395, "earthbound": 2396, "zefra": 2397, "therion": 2398, "oh!": 2399, "lunalight": 2400, "ursarc": 2401, "ursarctic": 2402, "yell": 2403, "fact": 2404, "sweet": 2405, "surpr": 2406, "dim": 2407, "steal": 2408, "towards": 2409, "poison": 2410, "lic": 2411, "gent": 2412, "fields": 2413, "hone": 2414, "came": 2415, "loud": 2416, "orn": 2417, "thief": 2418, "standing": 2419, "squirrel": 2420, "mad": 2421, "taking": 2422, "destru": 2423, "sitting": 2424, "plays": 2425, "valky": 2426, "thys": 2427, "quish": 2428, "fluffal": 2429, "odle": 2430, "exo": 2431, "exosister": 2432, "gunk": 2433, "gunkan": 2434, "ojama": 2435, "whos": 2436, "pushes": 2437, "chuck": 2438, "o!": 2439, "mark": 2440, "layer": 2441, "alien": 2442, "amer": 2443, "ract": 2444, "amor": 2445, "mythical": 2446, "laun": 2447, "import": 2448, "year": 2449, "oppos": 2450, "aint": 2451, "breath": 2452, "bes": 2453, "hell": 2454, "za": 2455, "machina": 2456, "stardust": 2457, "colink": 2458, "colinked": 2459, "elevel": 2460, "battlin": 2461, "dogmatika": 2462, "galaxyeyes": 2463, "tellarknight": 2464, "ha!": 2465, "tonight": 2466, "parents": 2467, "sandy!": 2468, "var": 2469, "species": 2470, "forest": 2471, "fle": 2472, "mid": 2473, "bon": 2474, "placed": 2475, "armor": 2476, "vious": 2477, "craw": 2478, "male": 2479, "suppos": 2480, "supposed": 2481, "fear": 2482, "dumb": 2483, "suc": 2484, "pine": 2485, "count": 2486, "boxer": 2487, "highest": 2488, "koz": 2489, "iling": 2490, "skip": 2491, "poke": 2492, "doubled": 2493, "stus": 2494, "1200": 2495, "valkyri": 2496, "sanctuary": 2497, "neph": 2498, "nephthys": 2499, "zombietype": 2500, "springans": 2501, "symphon": 2502, "now?": 2503, "ay!": 2504, "wher": 2505, "this!": 2506, "ready!": 2507, "myself": 2508, "appearance": 2509, "ages": 2510, "wings": 2511, "bran": 2512, "prey": 2513, "inspiration": 2514, "boun": 2515, "sharp": 2516, "eats": 2517, "moving": 2518, "bug": 2519, "called": 2520, "ital": 2521, "base": 2522, "yu": 2523, "dle": 2524, "cup": 2525, "ku": 2526, "cast": 2527, "wal": 2528, "brand": 2529, "boss": 2530, "beet": 2531, "happened": 2532, "12": 2533, "frost": 2534, "opping": 2535, "dolph": 2536, "screaming": 2537, "beat": 2538, "tex": 2539, "edle": 2540, "chained": 2541, "randomly": 2542, "naturia": 2543, "tomor": 2544, "tomorrow": 2545, "e!": 2546, "preda": 2547, "absolut": 2548, "absolutely": 2549, "weve": 2550, "chair": 2551, "greek": 2552, "gard": 2553, "respect": 2554, "ors": 2555, "miss": 2556, "bling": 2557, "lab": 2558, "sco": 2559, "probab": 2560, "probably": 2561, "shakes": 2562, "ends": 2563, "ili": 2564, "impres": 2565, "sque": 2566, "shir": 2567, "visas": 2568, "unchained": 2569, "magistus": 2570, "levelrank": 2571, "yours": 2572, "road": 2573, "symphonic": 2574, "genex": 2575, "relax": 2576, "rasp": 2577, "squarepants": 2578, "ow!": 2579, "offscreen": 2580, "moun": 2581, "ming": 2582, "anyone": 2583, "cla": 2584, "wood": 2585, "gas": 2586, "sac": 2587, "sense": 2588, "parti": 2589, "blast": 2590, "sequ": 2591, "collect": 2592, "ener": 2593, "sole": 2594, "quir": 2595, "travel": 2596, "experi": 2597, "ention": 2598, "ump": 2599, "important": 2600, "luster": 2601, "tongue": 2602, "children": 2603, "sus": 2604, "closer": 2605, "fortune": 2606, "incident": 2607, "code": 2608, "yral": 2609, "virtual": 2610, "bowl": 2611, "hia": 2612, "watching": 2613, "rix": 2614, "ride": 2615, "sits": 2616, "gaia": 2617, "wants": 2618, "doodle": 2619, "purrely": 2620, "metalfoes": 2621, "punk": 2622, "lib": 2623, "this?": 2624, "problem": 2625, "anno": 2626, "push": 2627, "snow": 2628, "atin": 2629, "gest": 2630, "bul": 2631, "drawing": 2632, "sne": 2633, "grou": 2634, "champ": 2635, "dig": 2636, "brain": 2637, "course": 2638, "predator": 2639, "restler": 2640, "snail": 2641, "vant": 2642, "on!": 2643, "rac": 2644, "space": 2645, "week": 2646, "register": 2647, "dolphin": 2648, "asses": 2649, "bir": 2650, "gun": 2651, "efic": 2652, "math": 2653, "chooses": 2654, "starfrost": 2655, "buster": 2656, "meet": 2657, "inflicted": 2658, "aquat": 2659, "aquatype": 2660, "quickplay": 2661, "positions": 2662, "spyral": 2663, "kozmo": 2664, "waiting": 2665, "heres": 2666, "magikey": 2667, "scarec": 2668, "zood": 2669, "zoodiac": 2670, "raspberry": 2671, "hears": 2672, "annoy": 2673, "ed!": 2674, "texas": 2675, "strong": 2676, "foss": 2677, "ani": 2678, "young": 2679, "resh": 2680, "charge": 2681, "cial": 2682, "mega": 2683, "cannon": 2684, "guardian": 2685, "days": 2686, "causing": 2687, "child": 2688, "clim": 2689, "bom": 2690, "urer": 2691, "dad": 2692, "deser": 2693, "fabled": 2694, "candy": 2695, "scal": 2696, "across": 2697, "size": 2698, "stu": 2699, "scary": 2700, "born": 2701, "stands": 2702, "chocol": 2703, "santa": 2704, "exceed": 2705, "beastwarriortype": 2706, "success": 2707, "gimmi": 2708, "doct": 2709, "romancer": 2710, "pineapple": 2711, "scareclaw": 2712, "subterror": 2713, "patrick?": 2714, "dollar": 2715, "boy!": 2716, "write": 2717, "bucket": 2718, "pokemon": 2719, "suf": 2720, "iev": 2721, "mountain": 2722, "bol": 2723, "fru": 2724, "ham": 2725, "lives": 2726, "tro": 2727, "knew": 2728, "covered": 2729, "swim": 2730, "rot": 2731, "sleeping": 2732, "dust": 2733, "explo": 2734, "enemy": 2735, "buzz": 2736, "blad": 2737, "coral": 2738, "ji": 2739, "rem": 2740, "strike": 2741, "ets": 2742, "charm": 2743, "tee": 2744, "restaur": 2745, "dodo": 2746, "corr": 2747, "infin": 2748, "robot": 2749, "emer": 2750, "sat": 2751, "tie": 2752, "mud": 2753, "birth": 2754, "gles": 2755, "saying": 2756, "mermail": 2757, "inzek": 2758, "inzektor": 2759, "gusto": 2760, "cip": 2761, "chosen": 2762, "crus": 2763, "gimmick": 2764, "dinow": 2765, "dinowrestler": 2766, "nept": 2767, "kash": 2768, "kashti": 2769, "kashtira": 2770, "libromancer": 2771, "laments": 2772, "boots": 2773, "you?": 2774, "lifts": 2775, "!!!!!!!!": 2776, "suffix": 2777, "named": 2778, "span": 2779, "tails": 2780, "deli": 2781, "evolved": 2782, "spin": 2783, "fort": 2784, "particular": 2785, "single": 2786, "flowers": 2787, "city": 2788, "future": 2789, "energy": 2790, "short": 2791, "ension": 2792, "electricity": 2793, "pair": 2794, "cher": 2795, "mit": 2796, "helmet": 2797, "complet": 2798, "pyro": 2799, "feeling": 2800, "agent": 2801, "sen": 2802, "nem": 2803, "rew": 2804, "doors": 2805, "beach": 2806, "sets": 2807, "deal": 2808, "iff": 2809, "swords": 2810, "unequip": 2811, "valkyrie": 2812, "mikan": 2813, "mikanko": 2814, "mode": 2815, "dinosaurtype": 2816, "twin": 2817, "mekk": 2818, "arklevel": 2819, "meklord": 2820, "keepers": 2821, "gagaga": 2822, "shiran": 2823, "predaplant": 2824, "tearlaments": 2825, "formula": 2826, "wormy": 2827, "feed": 2828, "liz": 2829, "dress": 2830, "olo": 2831, "smo": 2832, "seed": 2833, "ature": 2834, "legendary": 2835, "appeared": 2836, "human": 2837, "oid": 2838, "nect": 2839, "rocks": 2840, "ram": 2841, "slams": 2842, "keeps": 2843, "egg": 2844, "drop": 2845, "dge": 2846, "chest": 2847, "ength": 2848, "plain": 2849, "champion": 2850, "cam": 2851, "jade": 2852, "ris": 2853, "mil": 2854, "techni": 2855, "button": 2856, "experience": 2857, "restaurant": 2858, "ike": 2859, "opposite": 2860, "inks": 2861, "gad": 2862, "woman": 2863, "stre": 2864, "attention": 2865, "anyway": 2866, "needs": 2867, "boh": 2868, "requir": 2869, "books": 2870, "destruction": 2871, "floats": 2872, "wouldnt": 2873, "scared": 2874, "angri": 2875, "fanta": 2876, "gish": 2877, "gishki": 2878, "grill": 2879, "inferno": 2880, "laval": 2881, "gravekeepers": 2882, "crusad": 2883, "infernity": 2884, "tind": 2885, "tindangle": 2886, "out!": 2887, "shiranui": 2888, "malefic": 2889, "chuckles": 2890, "there!": 2891, "right!": 2892, "me?": 2893, "patchy": 2894, "incidental": 2895, "console": 2896, "referring": 2897, "poor": 2898, "others": 2899, "places": 2900, "battery": 2901, "cash": 2902, "fran": 2903, "sick": 2904, "meta": 2905, "inv": 2906, "realiz": 2907, "sti": 2908, "flavor": 2909, "asc": 2910, "worth": 2911, "heral": 2912, "melod": 2913, "adventurer": 2914, "that!": 2915, "dinomorp": 2916, "dinomorphia": 2917, "musket": 2918, "arr": 2919, "street": 2920, "aye": 2921, "anymore": 2922, "boring": 2923, "kevin": 2924, "ism": 2925, "spanish": 2926, "ently": 2927, "giving": 2928, "ninj": 2929, "charac": 2930, "arti": 2931, "uni": 2932, "weak": 2933, "aring": 2934, "tsu": 2935, "init": 2936, "pot": 2937, "saf": 2938, "range": 2939, "chall": 2940, "tough": 2941, "creatures": 2942, "karak": 2943, "hood": 2944, "feather": 2945, "sever": 2946, "itsu": 2947, "mention": 2948, "orm": 2949, "increas": 2950, "excit": 2951, "tea": 2952, "song": 2953, "wick": 2954, "shark": 2955, "ane": 2956, "answ": 2957, "none": 2958, "rage": 2959, "noise": 2960, "ruin": 2961, "repe": 2962, "chir": 2963, "shake": 2964, "necro": 2965, "decrease": 2966, "gadget": 2967, "contract": 2968, "written": 2969, "crusadia": 2970, "kraw": 2971, "krawler": 2972, "hug": 2973, "icejade": 2974, "vanquish": 2975, "great!": 2976, "larry": 2977, "dragons": 2978, "stat": 2979, "slee": 2980, "uma": 2981, "oce": 2982, "nel": 2983, "third": 2984, "chim": 2985, "valley": 2986, "multiple": 2987, "pref": 2988, "gaz": 2989, "jack": 2990, "series": 2991, "mortal": 2992, "flames": 2993, "chase": 2994, "pin": 2995, "speak": 2996, "practi": 2997, "pil": 2998, "fairytype": 2999, "shoo": 3000, "lil": 3001, "shin": 3002, "skills": 3003, "finished": 3004, "thro": 3005, "technique": 3006, "applied": 3007, "fess": 3008, "singing": 3009, "letter": 3010, "memor": 3011, "seven": 3012, "frog": 3013, "terrible": 3014, "oy": 3015, "angrily": 3016, "melodious": 3017, "branded": 3018, "kuriboh": 3019, "silent": 3020, "appliancer": 3021, "shuffled": 3022, "orcust": 3023, "mekkknight": 3024, "time!": 3025, "heroic": 3026, "atest": 3027, "nervously": 3028, "walkie": 3029, "walkietalk": 3030, "aaaaaaaa": 3031, "eedle": 3032, "hide": 3033, "princess": 3034, "gave": 3035, "brea": 3036, "carry": 3037, "wra": 3038, "magnet": 3039, "wand": 3040, "fier": 3041, "stage": 3042, "event": 3043, "mam": 3044, "teeth": 3045, "lus": 3046, "volcan": 3047, "fig": 3048, "quickly": 3049, "utes": 3050, "fossil": 3051, "adium": 3052, "linked": 3053, "gam": 3054, "jam": 3055, "rocktype": 3056, "mobi": 3057, "fantastic": 3058, "adv": 3059, "anywhere": 3060, "edarklevel": 3061, "signal": 3062, "finger": 3063, "infernoid": 3064, "runick": 3065, "mathmech": 3066, "karakuri": 3067, "neptune": 3068, "greatest": 3069, "swordsoul": 3070, "pirate": 3071, "peeks": 3072, "office": 3073, "nah": 3074, "chec": 3075, "ender": 3076, "quiet": 3077, "enter": 3078, "sting": 3079, "jur": 3080, "ank": 3081, "arc": 3082, "visible": 3083, "generation": 3084, "claws": 3085, "suit": 3086, "fighting": 3087, "connect": 3088, "french": 3089, "stars": 3090, "ending": 3091, "whis": 3092, "dia": 3093, "cel": 3094, "butter": 3095, "rocket": 3096, "nal": 3097, "bite": 3098, "challen": 3099, "een": 3100, "share": 3101, "lie": 3102, "seas": 3103, "incred": 3104, "tu": 3105, "reads": 3106, "month": 3107, "crit": 3108, "surprise": 3109, "darkness": 3110, "famili": 3111, "fif": 3112, "park": 3113, "pieces": 3114, "nth": 3115, "father": 3116, "played": 3117, "sequence": 3118, "removing": 3119, "attributelevel": 3120, "qli": 3121, "forb": 3122, "rule": 3123, "deskbot": 3124, "doctor": 3125, "jok": 3126, "here?": 3127, "bike": 3128, "s?": 3129, "hoor": 3130, "wheres": 3131, "crazy": 3132, "do?": 3133, "driving": 3134, "cheese": 3135, "award": 3136, "sigh": 3137, "walkietalkie": 3138, "yall": 3139, "meh": 3140, "review": 3141, "lier": 3142, "capa": 3143, "hours": 3144, "ific": 3145, "vies": 3146, "aken": 3147, "fit": 3148, "ake": 3149, "join": 3150, "selves": 3151, "faster": 3152, "rik": 3153, "created": 3154, "shield": 3155, "crossing": 3156, "horse": 3157, "doom": 3158, "lid": 3159, "bull": 3160, "specially": 3161, "bbing": 3162, "wake": 3163, "ranks": 3164, "scri": 3165, "chal": 3166, "busy": 3167, "a!": 3168, "covers": 3169, "wakes": 3170, "chocolate": 3171, "acounter": 3172, "additional": 3173, "ister": 3174, "jac": 3175, "kinda": 3176, "isher": 3177, "2atk": 3178, "paying": 3179, "briga": 3180, "brigade": 3181, "appo": 3182, "windup": 3183, "havent": 3184, "now!": 3185, "nope": 3186, "krab!": 3187, "pickles": 3188, "h!": 3189, "garys": 3190, "grandma": 3191, "closeup": 3192, "interesting": 3193, "hob": 3194, "ties": 3195, "latin": 3196, "hop": 3197, "capable": 3198, "histor": 3199, "crim": 3200, "habit": 3201, "blood": 3202, "tel": 3203, "descri": 3204, "hurry": 3205, "storm": 3206, "match": 3207, "beginning": 3208, "ption": 3209, "excell": 3210, "1800": 3211, "engl": 3212, "chick": 3213, "dor": 3214, "aster": 3215, "ana": 3216, "confus": 3217, "emperor": 3218, "vision": 3219, "quite": 3220, "possessed": 3221, "stuck": 3222, "tentacles": 3223, "bill": 3224, "purple": 3225, "pocket": 3226, "spiritual": 3227, "whate": 3228, "graphics": 3229, "hides": 3230, "tired": 3231, "mobile": 3232, "tory": 3233, "wicked": 3234, "typeattributelevel": 3235, "typeattributelevelatkdef": 3236, "labry": 3237, "labrynth": 3238, "ius": 3239, "rips": 3240, "tribrigade": 3241, "discards": 3242, "forbidden": 3243, "couple": 3244, "crystron": 3245, "forever": 3246, "trapt": 3247, "vernus": 3248, "vernusyl": 3249, "vernusylph": 3250, "help!": 3251, "forgot": 3252, "aww": 3253, "shoe": 3254, "giggles": 3255, "orts": 3256, "jellyspot": 3257, "animals": 3258, "chine": 3259, "chinese": 3260, "various": 3261, "angu": 3262, "cas": 3263, "mystery": 3264, "fresh": 3265, "expres": 3266, "ments": 3267, "tive": 3268, "dies": 3269, "icy": 3270, "lik": 3271, "approach": 3272, "vill": 3273, "toward": 3274, "cheer": 3275, "fierce": 3276, "forms": 3277, "group": 3278, "wns": 3279, "yi": 3280, "heat": 3281, "nut": 3282, "bat": 3283, "leep": 3284, "previous": 3285, "extrem": 3286, "thri": 3287, "ately": 3288, "usually": 3289, "pengu": 3290, "dar": 3291, "venom": 3292, "snake": 3293, "eter": 3294, "garb": 3295, "igh": 3296, "numer": 3297, "chance": 3298, "command": 3299, "wol": 3300, "whatever": 3301, "talent": 3302, "crashes": 3303, "enly": 3304, "started": 3305, "weird": 3306, "clu": 3307, "writing": 3308, "3atk": 3309, "pies": 3310, "adjac": 3311, "adjacent": 3312, "frame": 3313, "amorpha": 3314, "amorphage": 3315, "servant": 3316, "nd": 3317, "metaphys": 3318, "noneffect": 3319, "rooper": 3320, "cipher": 3321, "longer": 3322, "shuffling": 3323, "gift": 3324, "suship": 3325, "annoyed": 3326, "knocks": 3327, "away!": 3328, "hate": 3329, "cons": 3330, "feat": 3331, "produ": 3332, "sail": 3333, "plate": 3334, "certain": 3335, "tub": 3336, "powers": 3337, "knot": 3338, "tures": 3339, "ively": 3340, "strength": 3341, "excellent": 3342, "thous": 3343, "thousand": 3344, "tit": 3345, "pup": 3346, "ife": 3347, "draco": 3348, "dan": 3349, "raid": 3350, "lian": 3351, "mend": 3352, "lies": 3353, "mart": 3354, "especially": 3355, "loves": 3356, "divine": 3357, "shr": 3358, "spark": 3359, "minute": 3360, "sticks": 3361, "las": 3362, "windlevel": 3363, "2nd": 3364, "rankup": 3365, "rankupmagic": 3366, "beetrooper": 3367, "darklevel": 3368, "immortal": 3369, "waterlevel": 3370, "cyberdark": 3371, "loser": 3372, "dinomist": 3373, "dracos": 3374, "dracoslayer": 3375, "increased": 3376, "yelling": 3377, "sniff": 3378, "krabs?": 3379, "hello?": 3380, "chum": 3381, "business": 3382, "quarter": 3383, "wallet": 3384, "shaped": 3385, "ara": 3386, "gather": 3387, "surface": 3388, "dex": 3389, "lli": 3390, "kon": 3391, "tions": 3392, "neck": 3393, "fill": 3394, "trust": 3395, "poll": 3396, "dump": 3397, "heal": 3398, "reason": 3399, "meat": 3400, "although": 3401, "tos": 3402, "stom": 3403, "asleep": 3404, "caught": 3405, "penguin": 3406, "seal": 3407, "subst": 3408, "devel": 3409, "horrible": 3410, "silver": 3411, "woo": 3412, "fancy": 3413, "11": 3414, "cles": 3415, "harder": 3416, "zen": 3417, "garbage": 3418, "vy": 3419, "haw": 3420, "stret": 3421, "sight": 3422, "noises": 3423, "lers": 3424, "extremely": 3425, "gray": 3426, "pack": 3427, "wasp": 3428, "telling": 3429, "note": 3430, "oyster": 3431, "infernoble": 3432, "hall": 3433, "ninjitsu": 3434, "familiar": 3435, "junk": 3436, "rikka": 3437, "hiy": 3438, "igknight": 3439, "expect": 3440, "promise": 3441, "moment": 3442, "traptrix": 3443, "wow!": 3444, "sighs": 3445, "day!": 3446, "bottle": 3447, "jellyfishing": 3448, "consider": 3449, "earlier": 3450, "kings": 3451, "upon": 3452, "straight": 3453, "rout": 3454, "spider": 3455, "icious": 3456, "ws": 3457, "jumping": 3458, "despite": 3459, "spend": 3460, "ky": 3461, "ingly": 3462, "blade": 3463, "tiny": 3464, "ocean": 3465, "ching": 3466, "accel": 3467, "item": 3468, "zed": 3469, "region": 3470, "cost": 3471, "mechan": 3472, "look!": 3473, "cave": 3474, "reci": 3475, "organ": 3476, "arri": 3477, "flash": 3478, "raction": 3479, "maj": 3480, "gle": 3481, "sue": 3482, "lightning": 3483, "reaches": 3484, "tot": 3485, "ative": 3486, "flam": 3487, "octop": 3488, "poli": 3489, "infl": 3490, "pillow": 3491, "several": 3492, "19": 3493, "fog": 3494, "float": 3495, "cape": 3496, "belong": 3497, "gum": 3498, "enix": 3499, "spits": 3500, "fore": 3501, "cli": 3502, "camera": 3503, "safe": 3504, "bies": 3505, "squeak": 3506, "aces": 3507, "stant": 3508, "chirp": 3509, "block": 3510, "cookie": 3511, "clothes": 3512, "nou": 3513, "batteryman": 3514, "typedarklevel": 3515, "2500": 3516, "swordsman": 3517, "save": 3518, "nobody": 3519, "definit": 3520, "forward": 3521, "disappo": 3522, "melff": 3523, "megal": 3524, "zw": 3525, "amid": 3526, "gh!": 3527, "one!": 3528, "goodbye": 3529, "underwear": 3530, "dear": 3531, "gary?": 3532, "excuse": 3533, "checks": 3534, "lege": 3535, "married": 3536, "gameplay": 3537, "ache": 3538, "lizard": 3539, "rite": 3540, "aval": 3541, "enty": 3542, "character": 3543, "kit": 3544, "artist": 3545, "ski": 3546, "dancing": 3547, "pes": 3548, "represent": 3549, "completely": 3550, "disgust": 3551, "english": 3552, "hon": 3553, "stem": 3554, "natural": 3555, "usion": 3556, "classic": 3557, "slowly": 3558, "hol": 3559, "version": 3560, "sock": 3561, "dent": 3562, "pile": 3563, "eventually": 3564, "customer": 3565, "loy": 3566, "tile": 3567, "minutes": 3568, "ade": 3569, "glow": 3570, "kicks": 3571, "normally": 3572, "drinks": 3573, "rainbow": 3574, "carni": 3575, "sell": 3576, "painting": 3577, "ager": 3578, "sacred": 3579, "question": 3580, "really?": 3581, "necrovalley": 3582, "talker": 3583, "remaining": 3584, "amaz": 3585, "myst": 3586, "nouvel": 3587, "nouvelles": 3588, "rd": 3589, "itor": 3590, "reson": 3591, "impcant": 3592, "impcantation": 3593, "sink": 3594, "honest": 3595, "rack": 3596, "windwitch": 3597, "megalith": 3598, "medium": 3599, "unif": 3600, "again!": 3601, "bunch": 3602, "gee": 3603, "speaking": 3604, "hiyah!": 3605, "ffff": 3606, "gram": 3607, "mytholo": 3608, "anime": 3609, "dun": 3610, "gor": 3611, "ults": 3612, "toy": 3613, "thus": 3614, "ode": 3615, "movie": 3616, "additionally": 3617, "ican": 3618, "haun": 3619, "ago": 3620, "surround": 3621, "borrow": 3622, "sudd": 3623, "itive": 3624, "snaps": 3625, "absor": 3626, "confused": 3627, "weight": 3628, "anting": 3629, "waves": 3630, "crew": 3631, "knock": 3632, "bass": 3633, "cow": 3634, "phoenix": 3635, "shirt": 3636, "tiger": 3637, "serious": 3638, "wolf": 3639, "garden": 3640, "continue": 3641, "wash": 3642, "memory": 3643, "zoom": 3644, "pets": 3645, "trash": 3646, "script": 3647, "rul": 3648, "xsaber": 3649, "thinks": 3650, "cit": 3651, "returning": 3652, "nemler": 3653, "definitely": 3654, "melffy": 3655, "exer": 3656, "stair": 3657, "triamid": 3658, "dressed": 3659, "cmon": 3660, "hmmm": 3661, "smiles": 3662, "crawls": 3663, "yes!": 3664, "sauce": 3665, "whist": 3666, "glasses": 3667, "jellyspotters": 3668, "college": 3669, "popular": 3670, "rum": 3671, "ari": 3672, "evolutionary": 3673, "given": 3674, "imit": 3675, "believ": 3676, "cats": 3677, "ae": 3678, "steel": 3679, "conce": 3680, "official": 3681, "ized": 3682, "wasnt": 3683, "shop": 3684, "striking": 3685, "learned": 3686, "ned": 3687, "ori": 3688, "antic": 3689, "fighter": 3690, "ashes": 3691, "50": 3692, "crown": 3693, "shoot": 3694, "cute": 3695, "store": 3696, "trou": 3697, "exist": 3698, "particularly": 3699, "nature": 3700, "develop": 3701, "famous": 3702, "enna": 3703, "bil": 3704, "thin": 3705, "ohn": 3706, "lusc": 3707, "sorcer": 3708, "strugg": 3709, "mann": 3710, "requires": 3711, "scul": 3712, "invisible": 3713, "date": 3714, "arent": 3715, "zaps": 3716, "amed": 3717, "dangerous": 3718, "forth": 3719, "noti": 3720, "acounters": 3721, "curtain": 3722, "anced": 3723, "adic": 3724, "amazement": 3725, "mystical": 3726, "lyri": 3727, "discarding": 3728, "chalice": 3729, "3rd": 3730, "volcanic": 3731, "blader": 3732, "gogogo": 3733, "evoltile": 3734, "happens": 3735, "country": 3736, "psyframe": 3737, "cope": 3738, "ooh": 3739, "hooray!": 3740, "steps": 3741, "quot": 3742, "mmm": 3743, "stop!": 3744, "pean": 3745, "him!": 3746, "cookies": 3747, "doodlebob": 3748, "thum": 3749, "grass": 3750, "alpha": 3751, "evolve": 3752, "trainers": 3753, "ella": 3754, "partner": 3755, "hidden": 3756, "pok\u00e9dex": 3757, "epis": 3758, "visit": 3759, "tin": 3760, "snee": 3761, "faces": 3762, "create": 3763, "als": 3764, "wer": 3765, "coon": 3766, "starting": 3767, "rex": 3768, "kel": 3769, "aku": 3770, "pill": 3771, "reflect": 3772, "fired": 3773, "state": 3774, "liter": 3775, "io": 3776, "apri": 3777, "april": 3778, "scr": 3779, "spiral": 3780, "allows": 3781, "mill": 3782, "beard": 3783, "load": 3784, "smile": 3785, "aes": 3786, "dev": 3787, "carnival": 3788, "syl": 3789, "ior": 3790, "stink": 3791, "replace": 3792, "vide": 3793, "proud": 3794, "string": 3795, "shari": 3796, "worse": 3797, "teacher": 3798, "ightlevel": 3799, "ogdo": 3800, "!!!": 3801, "eldli": 3802, "chup": 3803, "dice": 3804, "nemleria": 3805, "dreaming": 3806, "alarm": 3807, "lucky": 3808, "lyrilusc": 3809, "couldnt": 3810, "exerc": 3811, "totally": 3812, "right?": 3813, "boating": 3814, "neigh": 3815, "cheers": 3816, "john": 3817, "eedleeedle": 3818, "multiplayer": 3819, "fox": 3820, "zu": 3821, "skin": 3822, "ids": 3823, "ified": 3824, "area": 3825, "tool": 3826, "horror": 3827, "fil": 3828, "rabbit": 3829, "hunting": 3830, "arom": 3831, "thy": 3832, "map": 3833, "chas": 3834, "wishes": 3835, "belly": 3836, "bee": 3837, "build": 3838, "magaz": 3839, "elli": 3840, "ren": 3841, "intro": 3842, "putting": 3843, "mic": 3844, "30": 3845, "octopus": 3846, "contain": 3847, "trouble": 3848, "cere": 3849, "dwell": 3850, "dogs": 3851, "ral": 3852, "elike": 3853, "snor": 3854, "stun": 3855, "personal": 3856, "wide": 3857, "riding": 3858, "paint": 3859, "holes": 3860, "scales": 3861, "ann": 3862, "itar": 3863, "emp": 3864, "log": 3865, "bber": 3866, "offer": 3867, "arth": 3868, "novel": 3869, "gus": 3870, "eless": 3871, "empty": 3872, "castle": 3873, "limit": 3874, "breaking": 3875, "hearts": 3876, "burns": 3877, "adam": 3878, "reborn": 3879, "prison": 3880, "ogdoadic": 3881, "jinzo": 3882, "adds": 3883, "starfish": 3884, "hisher": 3885, "decks": 3886, "thundertype": 3887, "afraid": 3888, "brotherhood": 3889, "resonator": 3890, "cloudian": 3891, "2100": 3892, "license": 3893, "winner": 3894, "home!": 3895, "driver": 3896, "simor": 3897, "simorgh": 3898, "geargi": 3899, "dinner": 3900, "shall": 3901, "infinit": 3902, "infinitrack": 3903, "knows": 3904, "shes": 3905, "marble": 3906, "stairs": 3907, "is!": 3908, "hus": 3909, "book!": 3910, "sobbing": 3911, "uniform": 3912, "butt": 3913, "more!": 3914, "enters": 3915, "hobbies": 3916, "mustache": 3917, "lap": 3918, "patter": 3919, "wy": 3920, "sug": 3921, "prehistor": 3922, "prehistoric": 3923, "brilli": 3924, "squee": 3925, "cake": 3926, "monkey": 3927, "drum": 3928, "movies": 3929, "mim": 3930, "bodies": 3931, "clay": 3932, "wig": 3933, "talks": 3934, "features": 3935, "artif": 3936, "ultra": 3937, "ette": 3938, "greed": 3939, "attempt": 3940, "massive": 3941, "leader": 3942, "audi": 3943, "blaze": 3944, "beha": 3945, "behavi": 3946, "wave": 3947, "isk": 3948, "viol": 3949, "ada": 3950, "training": 3951, "hangs": 3952, "floating": 3953, "oran": 3954, "shiny": 3955, "smaller": 3956, "secre": 3957, "nar": 3958, "ragon": 3959, "leaf": 3960, "antenna": 3961, "mentioned": 3962, "circle": 3963, "pole": 3964, "weap": 3965, "strange": 3966, "fishing": 3967, "consum": 3968, "grows": 3969, "ised": 3970, "reptilian": 3971, "phantasm": 3972, "tray": 3973, "hammer": 3974, "hipp": 3975, "answer": 3976, "way!": 3977, "smells": 3978, "mate": 3979, "milk": 3980, "sandwi": 3981, "masked": 3982, "keys": 3983, "catches": 3984, "nick": 3985, "royal": 3986, "engine": 3987, "path": 3988, "hanging": 3989, "climb": 3990, "ers!": 3991, "loudly": 3992, "99": 3993, "2400": 3994, "advanced": 3995, "corn": 3996, "redu": 3997, "attraction": 3998, "searing": 3999, "ravi": 4000, "battlewasp": 4001, "chimera": 4002, "ruler": 4003, "acceler": 4004, "option": 4005, "tuners": 4006, "dude": 4007, "kisik": 4008, "kisikil": 4009, "lilla": 4010, "spright": 4011, "hier": 4012, "club": 4013, "husband": 4014, "besides": 4015, "ahh": 4016, "neighbor": 4017, "jokes": 4018, "alalalal": 4019, "everywhere": 4020, "yee": 4021, "bathroom": 4022, "leans": 4023, "essay": 4024, "sports": 4025, "fucking": 4026, "perha": 4027, "perhaps": 4028, "bli": 4029, "punch": 4030, "laby": 4031, "rin": 4032, "langu": 4033, "trees": 4034, "tooth": 4035, "suggest": 4036, "temper": 4037, "brilliant": 4038, "unic": 4039, "clif": 4040, "gling": 4041, "depic": 4042, "episode": 4043, "likely": 4044, "ended": 4045, "sla": 4046, "ease": 4047, "eag": 4048, "culture": 4049, "careful": 4050, "brought": 4051, "ency": 4052, "nation": 4053, "introdu": 4054, "mut": 4055, "vicious": 4056, "ido": 4057, "active": 4058, "challenge": 4059, "intense": 4060, "ify": 4061, "coff": 4062, "nine": 4063, "detached": 4064, "bum": 4065, "drawn": 4066, "needed": 4067, "victim": 4068, "ney": 4069, "history": 4070, "incredible": 4071, "sof": 4072, "corrup": 4073, "lift": 4074, "further": 4075, "spl": 4076, "too!": 4077, "escape": 4078, "tried": 4079, "monarch": 4080, "photo": 4081, "proper": 4082, "ias": 4083, "fat": 4084, "zero": 4085, "kiss": 4086, "mum": 4087, "arian": 4088, "muff": 4089, "sculp": 4090, "truck": 4091, "barrel": 4092, "profess": 4093, "cooking": 4094, "poo": 4095, "suddenly": 4096, "prove": 4097, "spa": 4098, "notice": 4099, "link3": 4100, "adamanc": 4101, "adamanci": 4102, "adamancipat": 4103, "adamancipator": 4104, "sylvan": 4105, "aesir": 4106, "atlant": 4107, "stream": 4108, "paid": 4109, "background": 4110, "recipe": 4111, "borrel": 4112, "substit": 4113, "1000def": 4114, "accelerator": 4115, "dimension": 4116, "ishment": 4117, "glove": 4118, "elementsaber": 4119, "instant": 4120, "hieratic": 4121, "worst": 4122, "aho": 4123, "mannadium": 4124, "grab": 4125, "cept": 4126, "lips": 4127, "kidding": 4128, "doing?": 4129, "ripped": 4130, "see?": 4131, "oooo": 4132, "silly": 4133, "fred": 4134, "hugs": 4135, "treed": 4136, "treedome": 4137, "us!": 4138, "somebody": 4139, "tick": 4140, "hurt": 4141, "in!": 4142, "exercise": 4143, "boatmobile": 4144, "scare": 4145, "meen": 4146, "achi": 4147, "crack": 4148, "branch": 4149, "crimson": 4150, "absolute": 4151, "deliver": 4152, "mol": 4153, "slu": 4154, "terr": 4155, "ita": 4156, "ably": 4157, "cliff": 4158, "concept": 4159, "general": 4160, "turtle": 4161, "themselves": 4162, "frust": 4163, "sucks": 4164, "rides": 4165, "direction": 4166, "channel": 4167, "italian": 4168, "wis": 4169, "gym": 4170, "weed": 4171, "phy": 4172, "spi": 4173, "plas": 4174, "cus": 4175, "increases": 4176, "letters": 4177, "bomb": 4178, "crab": 4179, "ander": 4180, "system": 4181, "antis": 4182, "honey": 4183, "scorp": 4184, "nu": 4185, "ished": 4186, "shoots": 4187, "news": 4188, "pump": 4189, "correct": 4190, "scratch": 4191, "strum": 4192, "imagin": 4193, "ata": 4194, "youd": 4195, "flor": 4196, "accord": 4197, "according": 4198, "ched": 4199, "souls": 4200, "lion": 4201, "gol": 4202, "cartoon": 4203, "wil": 4204, "windows": 4205, "pig": 4206, "blowing": 4207, "dread": 4208, "showing": 4209, "brings": 4210, "backwards": 4211, "pit": 4212, "artifact": 4213, "scra": 4214, "butterfly": 4215, "curse": 4216, "hyper": 4217, "heraldic": 4218, "4000": 4219, "lightlevel": 4220, "despair": 4221, "jet": 4222, "hamon": 4223, "wyrmtype": 4224, "graveyards": 4225, "cynet": 4226, "pitch": 4227, "message": 4228, "dreams": 4229, "satell": 4230, "disappoint": 4231, "mission": 4232, "maje": 4233, "majespect": 4234, "majespecter": 4235, "middle": 4236, "relaxing": 4237, "vyl": 4238, "vylon": 4239, "shouldnt": 4240, "ohh": 4241, "aha!": 4242, "happily": 4243, "penny": 4244, "feels": 4245, "somewhere": 4246, "ssss": 4247, "girls": 4248, "uhuh": 4249, "house!": 4250, "pants!": 4251, "basket": 4252, "yy": 4253, "impressed": 4254, "maniac": 4255, "sandwich": 4256, "sneezes": 4257, "muh": 4258, "az": 4259, "spoon": 4260, "queens": 4261, "odo": 4262, "flu": 4263, "smoke": 4264, "mystic": 4265, "18": 4266, "fel": 4267, "object": 4268, "ura": 4269, "mysterious": 4270, "works": 4271, "aru": 4272, "signature": 4273, "expression": 4274, "commonly": 4275, "gul": 4276, "watt": 4277, "nets": 4278, "kne": 4279, "within": 4280, "icle": 4281, "turned": 4282, "member": 4283, "awaken": 4284, "resembling": 4285, "beasts": 4286, "winter": 4287, "pollen": 4288, "ordin": 4289, "prefer": 4290, "winds": 4291, "eagle": 4292, "magazine": 4293, "intelli": 4294, "clus": 4295, "ala": 4296, "tt": 4297, "loved": 4298, "alive": 4299, "apart": 4300, "physical": 4301, "ply": 4302, "shock": 4303, "growing": 4304, "sunlight": 4305, "bark": 4306, "meaning": 4307, "deer": 4308, "ben": 4309, "pattern": 4310, "brown": 4311, "instrum": 4312, "demon": 4313, "sides": 4314, "dee": 4315, "process": 4316, "rather": 4317, "prec": 4318, "anga": 4319, "straw": 4320, "glar": 4321, "crush": 4322, "forehead": 4323, "mustard": 4324, "throat": 4325, "tem": 4326, "seat": 4327, "calm": 4328, "pipe": 4329, "broken": 4330, "seconds": 4331, "odd": 4332, "sage": 4333, "aceful": 4334, "teen": 4335, "recog": 4336, "shocked": 4337, "birthday": 4338, "boot": 4339, "conch": 4340, "rup": 4341, "eyed": 4342, "zor": 4343, "lops": 4344, "exam": 4345, "rated": 4346, "victory": 4347, "farm": 4348, "chases": 4349, "gained": 4350, "jacks": 4351, "uria": 4352, "phantasms": 4353, "charmer": 4354, "steam": 4355, "tamer": 4356, "unused": 4357, "byst": 4358, "bystial": 4359, "brush": 4360, "performage": 4361, "lowest": 4362, "slime": 4363, "vell": 4364, "flips": 4365, "successfully": 4366, "dododo": 4367, "steels": 4368, "steelswarm": 4369, "mistake": 4370, "mop": 4371, "avalon": 4372, "reptilianne": 4373, "umm": 4374, "starry": 4375, "accept": 4376, "ooh!": 4377, "slides": 4378, "shut": 4379, "zooms": 4380, "puff!": 4381, "what?!": 4382, "daught": 4383, "sniffs": 4384, "soap": 4385, "ketchup": 4386, "citiz": 4387, "idea!": 4388, "joke": 4389, "tape": 4390, "sandy?": 4391, "alone!": 4392, "mythology": 4393, "rever": 4394, "delicious": 4395, "rat": 4396, "fruit": 4397, "alol": 4398, "nuts": 4399, "ert": 4400, "aged": 4401, "causes": 4402, "ano": 4403, "post": 4404, "jan": 4405, "pod": 4406, "umbr": 4407, "taste": 4408, "ote": 4409, "dances": 4410, "colors": 4411, "ami": 4412, "barra": 4413, "includes": 4414, "gres": 4415, "issue": 4416, "bright": 4417, "rhy": 4418, "berg": 4419, "exclus": 4420, "ail": 4421, "ince": 4422, "port": 4423, "dom": 4424, "cleaning": 4425, "lett": 4426, "behavior": 4427, "phant": 4428, "split": 4429, "pose": 4430, "skel": 4431, "skelet": 4432, "aks": 4433, "parts": 4434, "bears": 4435, "excited": 4436, "ishes": 4437, "practice": 4438, "protection": 4439, "dome": 4440, "meant": 4441, "female": 4442, "shining": 4443, "tall": 4444, "frozen": 4445, "ants": 4446, "solid": 4447, "tight": 4448, "lying": 4449, "aver": 4450, "fang": 4451, "15": 4452, "shaking": 4453, "emplo": 4454, "mete": 4455, "lamp": 4456, "nightmare": 4457, "sculpture": 4458, "electrom": 4459, "electromag": 4460, "cone": 4461, "gentle": 4462, "ddle": 4463, "opped": 4464, "bushi": 4465, "accident": 4466, "exchange": 4467, "urm": 4468, "tad": 4469, "behe": 4470, "nonlink": 4471, "sorcerer": 4472, "thrill": 4473, "army": 4474, "wiz": 4475, "neme": 4476, "nemeses": 4477, "raviel": 4478, "zarc": 4479, "sheep": 4480, "substitute": 4481, "fishtype": 4482, "plane": 4483, "squeezes": 4484, "good!": 4485, "track": 4486, "mokey": 4487, "wife": 4488, "sunavalon": 4489, "fasc": 4490, "teles": 4491, "telescope": 4492, "ever!": 4493, "deserve": 4494, "audience": 4495, "hoo!": 4496, "writes": 4497, "daughter": 4498, "lolli": 4499, "police": 4500, "struggles": 4501, "money!": 4502, "know!": 4503, "squaw": 4504, "entertain": 4505, "lary": 4506, "edl": 4507, "edlele": 4508, "recom": 4509, "!!!!!!!!!!!!!!!!": 4510, "shares": 4511, "asso": 4512, "sely": 4513, "mountains": 4514, "nowhere": 4515, "territ": 4516, "mostly": 4517, "umes": 4518, "gur": 4519, "amax": 4520, "oil": 4521, "birds": 4522, "bam": 4523, "bamboo": 4524, "los": 4525, "eo": 4526, "mix": 4527, "doof": 4528, "sens": 4529, "loc": 4530, "diamon": 4531, "pik": 4532, "pikach": 4533, "closed": 4534, "poisonous": 4535, "ida": 4536, "bursts": 4537, "hund": 4538, "hundred": 4539, "hoo": 4540, "39": 4541, "explain": 4542, "owned": 4543, "origin": 4544, "kab": 4545, "symbol": 4546, "noc": 4547, "death": 4548, "whale": 4549, "needle": 4550, "likes": 4551, "company": 4552, "rece": 4553, "tip": 4554, "orange": 4555, "lock": 4556, "predic": 4557, "tured": 4558, "record": 4559, "fet": 4560, "jour": 4561, "originally": 4562, "highly": 4563, "hydro": 4564, "eel": 4565, "17": 4566, "iss": 4567, "cheeks": 4568, "rubber": 4569, "project": 4570, "fal": 4571, "spray": 4572, "venge": 4573, "nest": 4574, "illusion": 4575, "adult": 4576, "excitement": 4577, "brothers": 4578, "bunny": 4579, "ads": 4580, "deadly": 4581, "sci": 4582, "crime": 4583, "oked": 4584, "rei": 4585, "ruel": 4586, "rolling": 4587, "marsh": 4588, "elle": 4589, "throwing": 4590, "loyal": 4591, "nes": 4592, "headed": 4593, "pictures": 4594, "justice": 4595, "ogre": 4596, "eyel": 4597, "belt": 4598, "lick": 4599, "figure": 4600, "dents": 4601, "results": 4602, "plus": 4603, "micro": 4604, "ision": 4605, "prevent": 4606, "rays": 4607, "bouncing": 4608, "pare": 4609, "claus": 4610, "behemoth": 4611, "despia": 4612, "ghoti": 4613, "oll": 4614, "ples": 4615, "wield": 4616, "tosses": 4617, "eldlich": 4618, "fiendtypedarklevel": 4619, "vice": 4620, "tenyi": 4621, "rip": 4622, "guardragon": 4623, "jer": 4624, "jurrac": 4625, "knightmare": 4626, "planet": 4627, "lou": 4628, "numeron": 4629, "satellarknight": 4630, "quantum": 4631, "socks": 4632, "arrgh": 4633, "till": 4634, "imagines": 4635, "dollars": 4636, "tartar": 4637, "uho": 4638, "worried": 4639, "enough!": 4640, "whacks": 4641, "howdy": 4642, "licks": 4643, "comput": 4644, "fun!": 4645, "okay!": 4646, "evilly": 4647, "go?": 4648, "growls": 4649, "meep": 4650, "er!": 4651, "asking": 4652, "remin": 4653, "reminis": 4654, "reminiscent": 4655, "image": 4656, "lived": 4657, "period": 4658, "arcan": 4659, "revi": 4660, "ances": 4661, "grown": 4662, "pom": 4663, "manip": 4664, "manipul": 4665, "ym": 4666, "comfor": 4667, "wed": 4668, "ured": 4669, "balls": 4670, "ahead": 4671, "comm": 4672, "nearby": 4673, "asked": 4674, "fortress": 4675, "tradition": 4676, "jun": 4677, "evolves": 4678, "described": 4679, "aroma": 4680, "tank": 4681, "bidoof": 4682, "finds": 4683, "fights": 4684, "facial": 4685, "american": 4686, "secur": 4687, "diet": 4688, "distur": 4689, "shine": 4690, "prepar": 4691, "below": 4692, "freeze": 4693, "sex": 4694, "magma": 4695, "shri": 4696, "bush": 4697, "vul": 4698, "selene": 4699, "rate": 4700, "abilities": 4701, "stomach": 4702, "cele": 4703, "native": 4704, "sapp": 4705, "fail": 4706, "lon": 4707, "remind": 4708, "compar": 4709, "scorpion": 4710, "carrying": 4711, "vir": 4712, "chef": 4713, "local": 4714, "reck": 4715, "phe": 4716, "presents": 4717, "taps": 4718, "fold": 4719, "ceed": 4720, "drew": 4721, "cred": 4722, "kir": 4723, "literally": 4724, "oop": 4725, "radi": 4726, "thesis": 4727, "missing": 4728, "realizes": 4729, "acorn": 4730, "thor": 4731, "tale": 4732, "lan": 4733, "anti": 4734, "fiction": 4735, "releas": 4736, "spit": 4737, "thir": 4738, "kick": 4739, "hippo": 4740, "sort": 4741, "ars": 4742, "respective": 4743, "meth": 4744, "vest": 4745, "greater": 4746, "matt": 4747, "chief": 4748, "eaten": 4749, "simple": 4750, "dai": 4751, "40": 4752, "bles": 4753, "video": 4754, "sham": 4755, "avian": 4756, "goo": 4757, "holy": 4758, "laught": 4759, "rubs": 4760, "rein": 4761, "blind": 4762, "keeper": 4763, "elightlevel": 4764, "ators": 4765, "quit": 4766, "ifts": 4767, "pound": 4768, "wizard": 4769, "bushido": 4770, "oter": 4771, "sinister": 4772, "pointing": 4773, "thal": 4774, "apo": 4775, "man!": 4776, "breathing": 4777, "twins": 4778, "sab": 4779, "13": 4780, "floow": 4781, "floowand": 4782, "floowandere": 4783, "floowanderee": 4784, "floowandereeze": 4785, "wagon": 4786, "utop": 4787, "bread": 4788, "guitar": 4789, "complain": 4790, "eternity": 4791, "reef": 4792, "missed": 4793, "errand": 4794, "monitor": 4795, "upset": 4796, "know?": 4797, "shuts": 4798, "touches": 4799, "ya?": 4800, "hour": 4801, "blah": 4802, "barnacles": 4803, "whew": 4804, "maam": 4805, "gosh": 4806, "inhal": 4807, "buddy!": 4808, "frowns": 4809, "peanut": 4810, "ouch!": 4811, "citizens": 4812, "fools!": 4813, "doorbell": 4814, "drool": 4815, "escal": 4816, "recommend": 4817, "horns": 4818, "snakes": 4819, "alo": 4820, "humans": 4821, "rinth": 4822, "tus": 4823, "fruits": 4824, "kom": 4825, "believed": 4826, "roo": 4827, "berries": 4828, "sleeps": 4829, "appar": 4830, "comfortable": 4831, "antly": 4832, "soil": 4833, "function": 4834, "indic": 4835, "emo": 4836, "tically": 4837, "rapid": 4838, "harm": 4839, "hooks": 4840, "zi": 4841, "bucks": 4842, "ede": 4843, "village": 4844, "mary": 4845, "release": 4846, "pool": 4847, "ordinary": 4848, "aggres": 4849, "gence": 4850, "valu": 4851, "gment": 4852, "thick": 4853, "whenever": 4854, "storms": 4855, "plants": 4856, "pure": 4857, "lines": 4858, "coloration": 4859,
[...]
